e </w>
s </w>
e n
e r
o n
t </w>
a </w>
i n
en </w>
e s</w>
a n
t i
e s
> </w>
< 2
, </w>
o </w>
. </w>
c h
d e</w>
a r
u n
o r
l </w>
d </w>
t h
er </w>
on </w>
i s
u r
d e
c i
d i
t r
p r
l i
l a</w>
q u
y </w>
o s</w>
a s</w>
o m
a l
r e
s i
th e</w>
e m
t a
g </w>
a u
t e</w>
n </w>
a ti
' </w>
f r
in </w>
l e</w>
e l
f </w>
i t
c on
en t</w>
o u
t o</w>
qu e</w>
<2 en
fr ></w>
<2 de
<2en ></w>
<2de ></w>
<2 fr></w>
<2 es
<2es ></w>
i r
a m
d er</w>
a l</w>
o p
e l</w>
p ar
a d
o f</w>
e c
ó n</w>
p o
a t
e t</w>
e i
a c
ch </w>
di e</w>
a s
d es</w>
or </w>
l es</w>
a b
pr o
u </w>
ur </w>
en t
o l
an d</w>
t er
i s</w>
e d</w>
i c
e in
c om
a ci
an </w>
i m
s t
s e</w>
é </w>
g r
l e
ati on</w>
d en</w>
) </w>
un g</w>
un d</w>
l '</w>
on s</w>
s u
i t</w>
in g</w>
ti on</w>
ar </w>
s ch
e x
l os</w>
v er
f or
u s
c e</w>
a g
( </w>
e t
a p
à </w>
a t</w>
i l
0 0
n i
u m
a v
r </w>
p l
r e</w>
d er
u l
e g
un </w>
i d
r es
o b
es t
d '</w>
em ent</w>
l as</w>
e h
p er
p or
r i
m e</w>
aci ón</w>
t s</w>
d o</w>
g en</w>
f f
v i
om m
i </w>
r é
t en</w>
ur op
ir </w>
t u
de l</w>
d é
b e
/ </w>
w i
c o
en te</w>
f ü
" </w>
ti v
x </w>
n o
an t</w>
d u</w>
s o
b i
tr e</w>
on es</w>
t en
si on</w>
s e
: </w>
0 </w>
r o
2 00
ch en</w>
a h
c u
an s</w>
- </w>
m a
p u
for m
s ta
p e
s er
d as</w>
a d</w>
de m
em b
d u
r a
g i
ti c
1 </w>
es t</w>
f or</w>
ci ón</w>
is i
au </w>
z u</w>
c l
g e
k </w>
w er
t o
m i
t e
ch t</w>
in ter
_ </w>
t é</w>
th </w>
E urop
f i
ou s</w>
ar i
m e
n e</w>
fü r</w>
2 </w>
th at</w>
é s</w>
un e</w>
V er
d is
par a</w>
o c
ati on
v on</w>
t es</w>
li c
g e</w>
a f
al es</w>
e v
n o</w>
d ans</w>
b er
5 </w>
e d
g en
po ur</w>
on t</w>
ch e</w>
a li
s tr
m o
ati ons</w>
p or</w>
pr es
h i
b e</w>
d es
omm is
l y</w>
p a
el l
tr i
m en
ent s</w>
i l</w>
3 </w>
m ent</w>
z </w>
t er</w>
un a</w>
is t</w>
é r
ti ons</w>
c on</w>
f in
I n
ein e</w>
di es
ad o</w>
m in
un gen</w>
4 </w>
1 9
ol l
e u
au f</w>
re c
ir e</w>
b u
ommis sion</w>
em </w>
g u
is t
au x</w>
t ur
m an
g an
um </w>
d os</w>
C on
R </w>
ei t</w>
U ni
s ti
; </w>
b l
e ch
c es</w>
en d
e it
tr a
par </w>
ar e</w>
un g
pr é
u s</w>
f ic
I </w>
h r
im </w>
s ur</w>
au s
g h
i er
6 </w>
e b
wi th</w>
ur s</w>
o s
w ir
n ation
A n
w </w>
m it</w>
as s
d a
í a</w>
en to</w>
i e</w>
v en
qu i</w>
ati v
on n
om </w>
ci a</w>
al l
ä n
an ce</w>
é e</w>
du c
es ti
or d
s o</w>
8 </w>
7 </w>
wer den</w>
E </w>
p on
ung s
f er
th is</w>
c er
P ar
f u
por t
al e</w>
gr am
par ti
an d
C om
dem </w>
pr op
ou </w>
is chen</w>
h ab
d ur
e p
li ch</w>
b y</w>
h o
f a
it s</w>
t or
c es
g l
si </w>
m en</w>
en ta
el le</w>
m ar
s in
com m
v o
en tr
sch af
g es
9 </w>
m u
l d</w>
on al</w>
ag e</w>
it é</w>
b er</w>
ci al</w>
en s
an te</w>
en ce</w>
com p
er i
B A
é es</w>
t z
t s
A r
aci ones</w>
ni cht</w>
l o
por t</w>
al l</w>
tr an
b le</w>
po si
w or
c r
BA R</w>
n ous</w>
d o
i ch</w>
m </w>
ei </w>
po li
e urop
z i
v el
p ec
w ir</w>
ci p
er s</w>
is e</w>
re l
per s
á </w>
n u
s es</w>
e in</w>
in g
z u
o ur</w>
sti tu
é g
s t</w>
qu es</w>
n e
a ch
m es</w>
as s</w>
w as</w>
s h
al s</w>
s u</w>
l o</w>
ol u
c re
l u
19 9
av e</w>
ser v
a in
U n
w e</w>
ab le</w>
c or
in form
u p
s ec
ta m
w h
t a</w>
t y</w>
d a</w>
r es</w>
A </w>
er e</w>
ß </w>
s ob
p as</w>
á s</w>
i v
di c
ou ld</w>
isi ón</w>
con tr
pro gram
ad a</w>
qu '</w>
E n
d ass</w>
cl u
g n
d ad</w>
ou t</w>
t os</w>
% </w>
C ommission</w>
or i
P ro
g li
m on
s s
no t</w>
is s
id ad</w>
sob re</w>
tiv e</w>
wir d</w>
b es
en ti
en s</w>
é n
ü ber</w>
th e
d r
n en</w>
ch t
G r
e f
ent es</w>
im port
l am
un d
en tre</w>
ur e</w>
v or
w il
e ff
ci ones</w>
i li
si ch</w>
a i
si d
h ave</w>
t ed</w>
Europ e
ad os</w>
un i
me di
or gan
h al
s y
ir es</w>
S ta
M it
S ch
v e</w>
b r
tran s
è re</w>
le g
a te</w>
h a</w>
A us
pl us</w>
ó </w>
au ch</w>
in i
pr e
w hi
u c
a y
w e
E r
vel op
t in
wil l</w>
a ch</w>
P r
a j
j e
sin d</w>
E U
fr om</w>
fin an
? </w>
es ta
F r
com o</w>
s ont</w>
b lic
th er</w>
B e
en cia</w>
poli ti
s p
k e</w>
re g
S </w>
é té</w>
as e</w>
c ul
em p
ein er</w>
z ur</w>
i z
ar g
o ur
s on</w>
l a
si e</w>
po s
an g
wi e</w>
it y</w>
K ommission</w>
an n
t w
k l
et z
es tr
m ás</w>
ac e</w>
m it
j e</w>
Uni on</w>
so ci
m er
h as</w>
inter nation
ei l
ei l</w>
v e
r ap
é ri
er a</w>
C </w>
whi ch</w>
su s</w>
es s
is tr
p </w>
est a</w>
z w
at en</w>
on e</w>
res id
an ti
s ou
è s</w>
j ec
an ts</w>
con si
ch er
d ar
h e</w>
ti on
ti g
et te</w>
is m
' s</w>
A b
ü r
c ur
qu i
bi li
ad es</w>
es te</w>
ta l</w>
R e
d s</w>
li chen</w>
con om
ol o
ah r
in e</w>
R eg
res pon
p li
en er
at ed</w>
ar r
b ei</w>
ein en</w>
su b
pro duc
y s</w>
E sta
ter n
h um
b o
ê tre</w>
H er
re i
ver n
a k
op er
en d</w>
e ur</w>
ac c
n ah
am </w>
ec </w>
u t
m or
s '</w>
t el
a gr
v is
an tes</w>
co un
w en
s eg
V or
en en</w>
P resid
é ta
au s</w>
ä r
an do</w>
tr o
j u
ti es</w>
h at</w>
c ette</w>
c ap
di rec
is che</w>
pré s
n ec
pr in
á n</w>
f on
ur es</w>
al so</w>
Europ ä
au f
tri bu
am ente</w>
de b
av ec</w>
con cer
ad op
in v
É ta
Com isión</w>
o der</w>
em ein
A u
in s</w>
m emb
es e</w>
si tu
europ é
d ro
C h
c ar
pr om
em ents</w>
a y</w>
st ell
n '</w>
ö r
s el
k en</w>
t ec
dies e</w>
hab en</w>
ari o</w>
ac tiv
E in
t el</w>
t ar
u ti
g er
an z
Mit gli
pr i
con s
al u
y ou</w>
w el
fü hr
é n</w>
C o
prin cip
f o
k t</w>
or es</w>
pro bl
sid ent</w>
s pe
. .
c e
ic </w>
av a
ö n
il l
is h
is ation</w>
a ff
a si
tr es</w>
pa ys</w>
r it
eh r</w>
ic a</w>
a ire</w>
é l
es s</w>
schaf t</w>
s am
de d</w>
sy st
00 </w>
k eit</w>
pa í
o ff
D i
n aci
en e</w>
ag en</w>
i a</w>
o w
ad as</w>
an n</w>
in d
Par lam
li che</w>
da ß</w>
t ou
in clu
su p
w ur
p i
g el
o h
i h
g o
ali z
po l
bi én</w>
al ly</w>
o tr
tam bién</w>
n ach</w>
su l
v er</w>
re gi
m us
li e
ch er</w>
li g
k ön
an c
res pec
in t
de l
m ö
b li
r en
di ff
è me</w>
eh en</w>
ap p
un ci
u e</w>
der n</w>
m ente</w>
s ol
be it
j o</w>
u x</w>
em os</w>
s olu
en den</w>
f t</w>
de v
pr im
w ä
the ir</w>
ex am
Mitgli ed
1 0</w>
k omm
pl o
for me</w>
tur e</w>
dies er</w>
qu es
m at
i g
le v
de c
en ne</w>
c </w>
ic e</w>
pro ces
o ci
M a
b re</w>
h e
con tin
ar d</w>
al ement</w>
an der
ti m
ü n
g eg
be en</w>
t or</w>
p e</w>
ativ e</w>
S ec
ar y</w>
emb er</w>
con f
C omm
Mitglied sta
í tic
in s
f ol
pro v
el les</w>
c an</w>
j us
mi ento</w>
m é
id o</w>
in a</w>
ac tu
Europe an</w>
ta do</w>
k ing</w>
EU </w>
b </w>
a it</w>
2 0
fi ci
Esta dos</w>
pu e
n ung</w>
comm un
u d
f ac
F or
ent os</w>
ab or
ic es</w>
n os</w>
g ar
d en
a z
min istr
sch en</w>
c as
t és</w>
h er
emb r
a ires</w>
ge b
nec es
B </w>
N </w>
dur ch</w>
st en</w>
em a</w>
K on
in stitu
on ales</w>
bu t</w>
isi on</w>
c am
ü ber
m es
P </w>
sh ould</w>
i ci
n om
gh t</w>
ei ch
cl ar
en g
m m
pu blic
de velop
te ch
un ter
A l
w eit
ar t
D </w>
v or</w>
at eg
o ther</w>
v ir
id ades</w>
l in
ch te</w>
G ener
le ur</w>
m et
h an</w>
s é
e urs</w>
S t
a ñ
arr oll
n eu
consi der
s er</w>
b et
ta tion</w>
il li
es to</w>
g én
t ex
h eit</w>
b re
n or
Con s
c ol
pol ític
res ul
t ant</w>
concer n
B er
g o</w>
c k
pro tec
mor e</w>
ar m
con tribu
con di
ü ss
it és</w>
parti cip
M on
! </w>
en n
w ould</w>
se jo</w>
th o
c entr
d oc
f re
finan ci
der ech
M in
í </w>
e ar
ein em</w>
Con sejo</w>
di es</w>
p en
is l
Cons eil</w>
s es
tic le</w>
hum an
ac t
al mente</w>
00 0</w>
G </w>
t sch
po in
Mitgliedsta aten</w>
s om
olo g
N ations</w>
el s</w>
per i
dé velop
mi embr
G es
au tor
O r
ma is</w>
us am
ab ili
al en</w>
p f
wer e</w>
ou v
r .</w>
et s</w>
cer ta
ti t
s oll
eit en</w>
dévelop p
l oc
z um</w>
r ati
kön nen</w>
c ep
d on
or s</w>
ab aj
gh </w>
S ie</w>
g t</w>
po ur
gen er
wen n</w>
se ñ
vi e
Pr ä
en f
d am
Europä ischen</w>
ism o</w>
d at
se in</w>
s a</w>
eh men</w>
m is
pe u
O </w>
co ur
ab les</w>
nation al</w>
t ing</w>
paí ses</w>
n er
U N
dé c
k ann</w>
th er
200 5</w>
pres ent
r u
rap port</w>
m ents</w>
des arroll
G emein
re com
str uc
200 4</w>
au tres</w>
R i
ter min
gr ou
s pr
com me</w>
é v
B eri
l an
In ter
in di
er en</w>
T </w>
ul ar</w>
th ere</w>
fa it</w>
g er</w>
m er</w>
g eh
t an
bi en</w>
t ä
nah men</w>
pro du
en z
Europ a</w>
en de</w>
h an
ver si
le urs</w>
in ten
ti k
Éta ts</w>
o d</w>
te ur</w>
ari os</w>
al is
internation al</w>
i e
as t</w>
u er
v ol
ég alement</w>
wor k</w>
ven tion</w>
ord in
t ung</w>
pos si
200 0</w>
v ous</w>
ta ire</w>
it ed</w>
res olu
ä l
pro c
doc um
Com ité</w>
r an
si m
usam men
en ci
ü tz
s in</w>
üss en</w>
Gener al</w>
ap lic
si ons</w>
th ese</w>
c o</w>
the y</w>
c el
gén ér
y a</w>
nu estr
or a</w>
memb res</w>
U m
t out</w>
Europ e</w>
el y</w>
organ iz
k s</w>
i ent</w>
f ahr
pers on
no ch</w>
tr abaj
eh r
t om
on der
er t</w>
il s</w>
ver y</w>
j et</w>
w ar
p un
e a</w>
er ung</w>
f s</w>
d ing</w>
un ser
ab er</w>
t schaf
p h
com un
Sta tes</w>
con stitu
f ir
f en</w>
k on
G e
par tic
at es</w>
2 0</w>
ti gen</w>
o l</w>
eu x</w>
b les</w>
M ar
b le
ges ch
n at
l is
tri es</w>
m üssen</w>
développ ement</w>
europé enne</w>
tr ava
ap pro
i o</w>
P o
t ar</w>
l ä
200 1</w>
f av
inform ation</w>
to dos</w>
j o
s at
c an
er ci
ari a</w>
f e
ein es</w>
al le</w>
n ur</w>
m an</w>
in forme</w>
eff ec
et en</w>
ad ministr
per o</w>
cr im
program me</w>
nu ev
L </w>
s etz
miembr os</w>
è res</w>
pr ev
b ar
s ur
so li
200 3</w>
emb re</w>
ic o</w>
ú n</w>
es pe
en do</w>
ü ck
é conom
ar ticle</w>
b il
ic kl
Co unci
m ê
is es</w>
i que</w>
U E</w>
prés ent
si g
I I</w>
i ento</w>
Counci l</w>
l ement</w>
vi ol
ó m
Her r</w>
ta ción</w>
En tw
so cial</w>
for der
ti g</w>
r a</w>
e conom
d om
d ra
cap aci
ti onn
b ei
c ri
tit le
< title
<title ></w>
m ati
b as
i f</w>
c ré
ß nahmen</w>
li z
v id
is se</w>
é li
s or
ac tion</w>
o f
Ü ber
ob jec
wur de</w>
g em
R ech
pu bli
1 5</w>
co oper
J ah
B es
us tri
dis posi
op ér
tech n
f un
h in
pl an
h om
re qu
P ré
pers onn
un s</w>
dies em</w>
p end
ma y
on g</w>
ter r
par t</w>
S tr
st än
n é
desarroll o</w>
serv ices</w>
komm en</w>
ques tion</w>
f am
lie ß
prop os
t eil
r ou
Pro gram
d g
ou vern
200 2</w>
i hr
ent a</w>
ne w</w>
ing s</w>
mus t</w>
l and</w>
Au f
g ab
Un ter
c a</w>
te gr
tiv o</w>
fa ire</w>
ar se</w>
coun tries</w>
Un ited</w>
F in
b eh
un ter</w>
app lic
cu p
ob je
ation en</w>
b en
an y</w>
ta ble</w>
pres enta
h ad</w>
ic ul
qu ali
naci onal</w>
t ous</w>
par t
c '</w>
inv esti
1 2</w>
com pr
f e</w>
ti me</w>
am os</w>
Ar tik
S e
contin u
S i
3 0</w>
est á</w>
su ch</w>
art í
st an
Or gan
pro vi
Entw ickl
organ is
dro its</w>
t as</w>
en vir
wi th
g re
[ </w>
h </w>
gh ts</w>
respon s
import ant</w>
rel ativ
cu esti
situ ation</w>
pl em
g ar</w>
in f
pr iv
tiv a</w>
li ch
cul o</w>
ul ation</w>
Presid ente</w>
g est
ch an
ic al</w>
e j
í as</w>
str um
public </w>
gi e</w>
ar á</w>
bes onder
Z usammen
y ec
c le
C E
] </w>
y our</w>
esti mm
an de</w>
s an
em plo
te e</w>
re con
o k
mê me</w>
a po
re port</w>
si on
pro gr
ter i
par te</w>
enta l</w>
Ar beit
Vor sch
de ci
so ur
N U
ré gi
al g
esta bl
n er</w>
ob lig
gu e</w>
1 1</w>
ver s
ur idad</w>
F </w>
mar k
ob serv
d onn
sta t
b en</w>
gu i
fu er
st ütz
a is</w>
k te</w>
tr ag
ta dos</w>
b t</w>
u k
ú blic
s en</w>
b an
m un
n um
est os</w>
pl an</w>
v om</w>
eb en</w>
R at</w>
W ir
ex is
b est
poin t</w>
f und
x i
1 0
ef for
i te</w>
aus si</w>
K o
zw ischen</w>
vo ir</w>
ord nung</w>
con sul
r è
im p
l ar
ve au</w>
e -
j ur
b ase</w>
ci on
con clu
ih re</w>
ho w
M en
solu tion</w>
est as</w>
nor m
politi que</w>
ti ge</w>
ab str
19 8
agr ap
b eit</w>
z eu
o si
arg o</w>
x im
tra g</w>
m ul
n eg
Uni ón</w>
em i
on ly</w>
europ ä
gl ob
l em
wi ch
S u
tion en</w>
5 0</w>
cur ité</w>
par agrap
me j
e z</w>
ta li
dies es</w>
con tre</w>
su m
gar anti
p as
pr ès</w>
í an</w>
s on
D e
av o
abstr act
g ung</w>
abstract ></w>
< abstract></w>
M .</w>
s ist
c ad
pue de</w>
ah l
gr o
ev er</w>
en ces</w>
medi das</w>
for e</w>
c as</w>
f in</w>
y o</w>
do it</w>
tr ä
v al
Pré sident</w>
pro yec
m ehr</w>
Artik el</w>
tr y</w>
an t
to do</w>
mu ch
u se</w>
Europe a</w>
sé curité</w>
por ts</w>
A m
200 6</w>
pl ace</w>
pro b
P er
n ou
f l
is su
con ta
I s
it tee</w>
ac ces
ä tz
man i
h u
o v
c oll
t y
mes ures</w>
1 .
in dic
pe ti
at ing</w>
crim in
in to</w>
f aci
terr or
sat z</w>
up </w>
er o</w>
el ec
con óm
Ri cht
en di
we en</w>
ei ch</w>
er h
prom o
M </w>
bet ween</w>
ob ier
au t</w>
de be</w>
h ac
B ei
h el
né ces
v ari
d ung</w>
l ég
artí culo</w>
ier ung</w>
comp le
Ma ßnahmen</w>
M e
ain e</w>
m illi
N aciones</w>
wä hr
em s</w>
ini ti
prop u
Sec re
pro f
f em
derech os</w>
contr a</w>
ä f
de ber
eh t</w>
bu dg
stell en</w>
c a
ain si</w>
espe ci
in tegr
b is</w>
nom bre</w>
tic al</w>
mo di
vi ci
sch e</w>
enta tion</w>
Uni das</w>
b ec
z ei
peu t</w>
it ä
wir k
E x
mat eri
en c
S o
fic ation</w>
develop ment</w>
g emein
de t</w>
pe op
al y
v ent</w>
import ante</w>
un der
no w</w>
.. .</w>
A ss
1 3</w>
L i
r is
V </w>
p op
ti f</w>
ell en</w>
p ass
de ut
Prä sident</w>
trava il</w>
da y</w>
li ber
A d
ab out</w>
mar ch
ch il
ar beit
de ux</w>
in es</w>
n on</w>
2 .
au se</w>
s ehr</w>
in cre
en si
w ei
e ur
possi ble</w>
i ón</w>
ai ent</w>
Beri cht</w>
te urs</w>
fo is</w>
ef ec
tiv os</w>
inform ación</w>
tic a</w>
el t</w>
f est
ti ene</w>
partic ular</w>
re ment</w>
no v
ta ires</w>
mö chte</w>
sp é
l än
protec tion</w>
ci vi
co urs</w>
parti cu
un der</w>
z a</w>
jus ti
Presid ent</w>
Bes ch
199 9</w>
ber eit
end re</w>
exam in
Di rec
In form
i ed
H o
tiv es</w>
1 4</w>
er n
at ten
ind ustri
i es</w>
particu li
som e</w>
añ os</w>
es p
s te</w>
mo st</w>
M r</w>
t em
M ember</w>
sup port</w>
naci onales</w>
sig ni
gr up
Q u
Europä ische</w>
Comm ittee</w>
wh o</w>
pl ac
C E</w>
ra it</w>
é qu
m ent
cur r
di ci
form a</w>
ar on</w>
ac ti
pu esto</w>
ac uer
au c
th an</w>
ish </w>
polític a</w>
est in
ex pres
in strum
ci d
g lich</w>
peop le</w>
En tsch
con form
G o
L än
et t
Parlam ento</w>
faci li
D E
l os
id enti
p ens
or y</w>
dro it</w>
leg isl
re aliz
w ar</w>
hal b</w>
c er</w>
re d</w>
man y</w>
C O
in st
etz t</w>
n am
e pr
b un
su iv
so wie</w>
u al</w>
it o</w>
ma y</w>
Min is
l at
st and
e duc
ac cor
ag re
at s</w>
Comm un
li ke</w>
ö ff
In tern
ma de</w>
an cia</w>
wh at</w>
fi g
ass en</w>
p al
lin ie</w>
stän di
pr emi
ur ity</w>
ali dad</w>
u di
wur den</w>
c li
dem ás</w>
A fr
2 5</w>
on -
mit tel
m i</w>
tern ehmen</w>
mu y</w>
posi tion</w>
er v
po dr
com b
wh en</w>
Parlam ent</w>
tho se</w>
tan to</w>
e conóm
avo ir</w>
alg un
sam e</w>
g ouvern
re fer
n a
Gr up
ser vici
R ah
si gn
re ci
w ay</w>
al o
c um
de termin
ri f
ex p
j '</w>
ti onal</w>
enci as</w>
sch ließ
li eg
id a</w>
ati s
seg u
tr e
nah me</w>
ag es</w>
d ont</w>
Ass emb
w al
ch o
ch ang
am bi
effor ts</w>
u tz
s ans</w>
s a
S y
ä ch
h is</w>
ist a</w>
tur a</w>
gel eg
am iento</w>
c ro
no tre</w>
tr av
mer c
ô le</w>
cad re</w>
h eit
isi ons</w>
A c
as í</w>
Gemein schaft</w>
otr os</w>
us s</w>
m ise</w>
and l
met tre</w>
acc ord
m a</w>
1 8</w>
pro ce
pa i
ne ed</w>
s k
m is</w>
ni </w>
fir st</w>
bes ch
ve z</w>
me as
an os</w>
mu j
ag ement</w>
ci r
f oll
mi li
fr on
b ur
a ir
ri ghts</w>
n ach
k eine</w>
fahr en</w>
v re</w>
W or
s hi
M i
gener al</w>
th rou
dur ante</w>
o do</w>
t emp
eb r
ex per
m s</w>
ter s</w>
e as</w>
commun au
m b
syst em</w>
tä t</w>
om en</w>
ses sion</w>
dé r
Gr und
vie w</w>
pre par
po lic
sh all</w>
ch ten</w>
j ed
an a</w>
ech o</w>
k e
wir tschaf
tic </w>
program mes</w>
per í
our n
program a</w>
ß er
de fin
Z u
ad ores</w>
applic ation</w>
to tal</w>
am ent</w>
ce la</w>
m om
respec to</w>
form </w>
o ch</w>
m ismo</w>
p s</w>
uti liz
1 3
ell ement</w>
N or
ander en</w>
condi tions</w>
y ear
ques tions</w>
prop osi
tr ès</w>
á c
obier no</w>
Par lement</w>
entr epr
vern ment</w>
f ur
ai d</w>
Ver ordnung</w>
h il
a i</w>
di ch
ta ke</w>
des de</w>
h eu
sec tor</w>
D E</w>
der ung</w>
EU -
trabaj o</w>
w ür
us o</w>
spe ci
o ver</w>
ti fs</w>
mul ti
seg uridad</w>
or der</w>
s ex
qu é</w>
B eh
j un
Con vention</w>
h ar
ge w
si eur</w>
Éta t</w>
u si
y e
1 5
europé en</w>
person as</w>
co ordin
señ or</w>
s em
er r
cam bi
L e
Pr ob
ent en</w>
p er</w>
dam it</w>
Mon sieur</w>
1 6</w>
bes ser
c et</w>
pro jet</w>
t ari
a in</w>
pri or
besonder e</w>
w end
Richt linie</w>
as pec
cu ando</w>
fu l</w>
w s</w>
D ec
p le</w>
l er</w>
T h
p o</w>
Entwickl ung</w>
in tro
jed och</w>
tw o</w>
ten er</w>
ac t</w>
b ein
por te</w>
proc é
di t</w>
b eg
d av
dies en</w>
di al</w>
ra is
im plem
signi fic
internation ale</w>
ent ales</w>
c ada</w>
Fin anz
Gr ou
opér ation</w>
v ou
f ul
ev alu
con ven
mus s</w>
year s</w>
f ér
E ur
Ver ein
hi er</w>
d ades</w>
wel l</w>
inter nacional</w>
a par
ic os</w>
lu gar</w>
k eiten</w>
bili dad</w>
der ni
indi vid
s -
ter rit
a de
v o</w>
int é
Z i
am en
so it</w>
Si cher
g keit</w>
prof es
f le
paí s</w>
geg en</w>
é ment</w>
h ay</w>
av ons</w>
tr at
tor es</w>
á r
cor e</w>
fem mes</w>
1 4
au th
ch es</w>
ver s</w>
hal ten</w>
gi bt</w>
an aly
concern ant</w>
th em</w>
st ar
sour ces</w>
we ise</w>
omm en</w>
v es</w>
¿ </w>
i ge</w>
perí odo</w>
mati ère</w>
a près</w>
nat ur
b ri
Esta do</w>
Uni es</w>
uti lis
soll te</w>
t ent</w>
olo gi
fon c
in de
Arbeit s
respons abili
ñ os</w>
le tz
è mes</w>
foll ow
bili ty</w>
parti es</w>
t -
ur s
ter n</w>
B o
er es</w>
how ever</w>
ul ar
ä u
investi g
á n
iv ent</w>
dis pon
ú l
Ä n
em as</w>
mo ins</w>
R o
1 2
dr en</w>
es a</w>
T ra
er n</w>
néces s
1 7</w>
situ ación</w>
öff ent
c al
m y</w>
oc r
aci a</w>
si cher
rè gl
ni veau</w>
P re
ar beit</w>
politi k</w>
en z</w>
t t
k re
m al
br au
er k
v en</w>
ä m
op ini
D ie</w>
aplic ación</w>
200 7</w>
mi gr
aus hal
personn es</w>
z on
d estin
I h
b ar</w>
s ó
M o
H </w>
ré solution</w>
p úblic
es os</w>
ier en</w>
wh ere</w>
com prom
0 ,
ma in
i gn
e ti
cas o</w>
c in
ho w</w>
Reg i
at eurs</w>
ihr er</w>
w n</w>
ay u
end a</w>
resolu ción</w>
hum an</w>
ra f
ta tions</w>
ex tr
i de
econom ic</w>
ass ur
U </w>
spé ci
Rech ts
be wer
ap pli
w oh
don c</w>
derech o</w>
d ou
all s</w>
l or
cr it
t te</w>
v a</w>
em pres
comp te</w>
an del
com e</w>
Aus sch
l on
ch ar
acuer do</w>
proyec to</w>
h as
S r.</w>
ho tel</w>
in fr
ommis s
B ür
économ ique</w>
do ivent</w>
T r
e li
Rah men</w>
activ ités</w>
gro ß
tou tes</w>
A k
I r
b el
n is</w>
af in</w>
ma ke</w>
la g</w>
s atis
acc ep
emb argo</w>
us ed</w>
str ateg
ver sch
1 8
coun try</w>
l en</w>
é c
ain st</w>
af ter</w>
ti r
da te</w>
ali té</w>
deb ate</w>
han g</w>
activ idades</w>
ac k
fund am
oc rati
sist ema</w>
est án</w>
on en</w>
ge führ
ä hr
ta ge</w>
R es
ener g
ass ist
6 0</w>
f ass
t lichen</w>
tam ente</w>
at t
su ff
y -
pr ec
ini ci
syst ème</w>
hac er</w>
T he</w>
ier t</w>
su per
c ar</w>
dis crimin
éta it</w>
mo y
ag ainst</w>
throu gh</w>
id os</w>
is ten</w>
ed ad</w>
L a</w>
est udi
gest ell
diff er
enf ants</w>
p ur
d ar</w>
ic as</w>
ent ly</w>
1 ,
an des</w>
v ue</w>
ren for
de u
a demás</w>
w omen</w>
an im
at en
z eich
génér al</w>
ser a</w>
mö gli
t l
u st
ei gn
í n
al th</w>
co opération</w>
op </w>
e qu
c us
contr ol</w>
conf lic
con tex
le gen</w>
qu o
to das</w>
servici os</w>
Un ternehmen</w>
man d
un idad</w>
p ati
p le
cul tur
úl tim
si do</w>
institu tions</w>
ess enti
e der
exam en</w>
c aus
apo yo</w>
bein g</w>
.. ..
ori g
rif ten</w>
l and
en st
añ o</w>
ré g
t al
diff ér
p es</w>
chil dren</w>
b asi
ativ es</w>
b estimm
Is ra
ac tions</w>
is ti
ye ar</w>
et y</w>
com pl
2 4</w>
en core</w>
k o
ol le</w>
A C
ari as</w>
G u
may or</w>
ex ist
ai de</w>
B an
ins besondere</w>
soll ten</w>
qu e
chan ge</w>
règl ement</w>
si ón</w>
de clar
re m
cuesti ón</w>
num ber</w>
h ist
v ic
su c
comp et
w er</w>
europä ischen</w>
ther e
ci miento</w>
re present
ten cia</w>
• </w>
si te</w>
G obierno</w>
l age</w>
p ou
1 7
am pli
im mer</w>
J ahr
in n
meas ures</w>
polic y</w>
h echo</w>
P l
all en</w>
ac k</w>
c ement</w>
hom me</w>
accor d</w>
esta ble
qu el
ad or</w>
ar ds</w>
ou t
se e</w>
fam ili
v ed</w>
Jah r</w>
res s
j a</w>
c ould</w>
d re</w>
th re
em ente</w>
ö l
so zi
fig ur
ell o</w>
e au</w>
o cup
de leg
só lo</w>
politi ques</w>
q </w>
emb le</w>
tor s</w>
an ces</w>
dur ing</w>
cor respon
li cher</w>
z ar</w>
19 </w>
prop or
human os</w>
tr uc
j our</w>
parti e</w>
se con
min u
ation al</w>
k tion</w>
pu is</w>
et ing</w>
jec t</w>
commun ic
tion s
Par li
fic ación</w>
unser e</w>
ö s
h än
Fr au</w>
fuer z
ma j
p an
with in</w>
N o
tic o</w>
H aushal
b a</w>
f f</w>
si gui
tr eff
I N
i ones</w>
ch ts</w>
ec e</w>
heu te</w>
ch a
tig t</w>
emp le
d ah
a ur
kl är
si ve</w>
R E
di </w>
ti emp
gen ommen</w>
regi onal</w>
z e</w>
com par
in ing</w>
tam ment</w>
ù </w>
bili té</w>
no tamment</w>
tic as</w>
temp s</w>
e k
es o</w>
er g
L u
ex plo
direc tive</w>
dur ch
iss en</w>
2 1</w>
re li
cooper ación</w>
s al
au tre</w>
él ec
c ab
e der</w>
am éli
o se</w>
o ù</w>
améli or
ativ a</w>
is sion</w>
cu enta</w>
er te</w>
a prob
con tra
tr au
ci </w>
Europe o</w>
eff ic
ü h
gab en</w>
1 6
le ist
procé dur
P al
march é</w>
ri ght</w>
pres ente</w>
Parli ament</w>
el eg
budg et</w>
ri g
Po li
t ob
Zusammen arbeit</w>
ain es</w>
3 1</w>
al isation</w>
200 8</w>
respec t</w>
gl eich
t an</w>
isi ones</w>
re du
Wir tschaf
t schaft</w>
serv ice</w>
z el
cle ar</w>
n on-
dé b
f al
er on</w>
unter stütz
leg al</w>
4 0</w>
re présent
us es</w>
proces o</w>
bo th</w>
e qui
bun al</w>
import ance</w>
ad di
pue den</w>
en i
déc ision</w>
p éri
m ill
Her r
n et</w>
setz ung</w>
produc tion</w>
d enen</w>
se a</w>
has ta</w>
is m</w>
bereit s</w>
paragrap he</w>
po ten
g es</w>
urs os</w>
dé clar
muj eres</w>
ri cht
qu ier
N e
T ri
mi entos</w>
führ ung</w>
ti s
il le</w>
fu e</w>
F on
l ée</w>
cel ebr
é tu
o k</w>
peu vent</w>
ré pon
t ei
deb en</w>
resolu tion</w>
is me</w>
en der</w>
l ab
N r.</w>
ex peri
lev el</w>
Ch ina</w>
Sta te</w>
otr as</w>
tou te</w>
Ab satz</w>
reg istr
ah ora</w>
wend ung</w>
1 .</w>
ou ver
there fore</w>
publi que</w>
pl az
po se</w>
se p
wor ld</w>
D em
dat os</w>
D ur
ma in</w>
ev e</w>
U S
oc cup
pop ulation</w>
assist ance</w>
si ch
í fic
at er</w>
B r
tiemp o</w>
pro t
W e
pré c
en h
B el
s ous</w>
* </w>
am e</w>
M E
agr icul
g as
199 8</w>
sec u
inclu ding</w>
per man
R us
tr agen</w>
it u
en cour
in ner
proces s</w>
Con fer
ver k
m al</w>
av ant</w>
spe cial</w>
con struc
proc ed
z ur
ist as</w>
Fr age</w>
an u
dis tribu
ré sul
dah er</w>
p ap
o w</w>
dis cus
Entsch ei
gem ä
rec ursos</w>
shi p</w>
consi dér
re ad
B ed
tam os</w>
propu esta</w>
is te</w>
li mit
. 1</w>
v el</w>
trans par
ob </w>
z us
pr e</w>
omm es</w>
I ra
vor sch
establ ish
el en</w>
1 00</w>
S I
or t
neu en</w>
pers onal</w>
iss ance</w>
rel ación</w>
re duc
ir m
as soci
p ag
e fici
gr an</w>
a tr
ni vel</w>
geg en
er os</w>
is cher</w>
bec ause</w>
est s</w>
mis sion</w>
s eine</w>
ab </w>
al ten</w>
ar s</w>
prim er</w>
s alu
qu er</w>
en th
h ere</w>
ou s
emplo y
b res</w>
b us
ic k
péri o
inform ations</w>
aci onal</w>
an g</w>
pres u
Grup o</w>
neu e</w>
g ent
geb en</w>
h ol
c ent</w>
hi gh
poli tical</w>
at é
pr ü
eg en</w>
2 2</w>
i di
i en</w>
Wirtschaf ts
pr ác
ex clu
la w</w>
si s</w>
u es</w>
T ran
Sy st
ta ken</w>
d ann</w>
certa ins</w>
in gen</w>
heit s
ti enen</w>
inter ven
Pro du
con ten
ett bewer
ay s</w>
Se ñ
stell ung</w>
fav or
y e</w>
fi ed</w>
woh l</w>
p sy
proce di
K ol
fol gen
re qui
f aut</w>
co st
da zu</w>
men tal</w>
i gu
dem ande</w>
j our
lo gr
un o</w>
ommis sion
po st
ar es</w>
dis tin
führ en</w>
be k
œ u
ci ud
inté gr
et er</w>
l assen</w>
il y</w>
ex emp
y ing</w>
enc y</w>
ann ex
glob al</w>
ta ts</w>
E G</w>
T ur
el d</w>
re co
ander e</w>
in ed</w>
In stitu
T I
D is
l ag
soli ci
vi ties</w>
2 3</w>
re presenta
merc ado</w>
ges am
es en</w>
tra di
appro pri
lie u</w>
schaf ts
i k
h or
ad d
di fer
n isse</w>
ö ß
pa ñ
fon ds</w>
at ta
A R
res sources</w>
gr ap
fic </w>
ation s
gestell t</w>
ni ños</w>
Inter national</w>
ei chen</w>
bes o
kön n
form ul
A s
tech ni
lam ento</w>
im e</w>
oll en</w>
i ques</w>
ä h
st är
om s</w>
ungs an
h y
v ing</w>
mo d
E C
d re
tig ung</w>
ava il
t liche</w>
por teur</w>
posi ble</w>
Men schen</w>
con sum
loc al</w>
program as</w>
p es
Um wel
gr i
d an
s ci
ed a</w>
Än der
de puis</w>
finan cial</w>
jus t</w>
p ár
V I
docum ent</w>
H um
H in
is is</w>
str até
produ its</w>
J u
er forder
envir on
onn ement</w>
pre ci
th en</w>
tra it
è rement</w>
ti en</w>
acti vities</w>
trä ge</w>
pai x</w>
200 9</w>
M ad
t et</w>
hab e</w>
proces sus</w>
sec urity</w>
3 .
l lev
mej or
str eng
C or
re v
év alu
el n</w>
4 .
gemä ß</w>
certa in</w>
jo urs</w>
Sec ré
h ay
int ér
au ßer
l ors</w>
i os</w>
ev en</w>
om e</w>
dé fin
In v
mill ones</w>
concer ne</w>
a im
grou pe</w>
men to</w>
sch n
Go vernment</w>
ci as</w>
proposi tion</w>
dev rait</w>
mar co</w>
B ar
comp é
ah l</w>
fu tur
su ite</w>
19 7
respon si
mark et</w>
Ho tel</w>
Ber eich</w>
ten ir</w>
Con ven
ar ea</w>
cooper ation</w>
ch i
t ario</w>
esti m
n ex
E N</w>
algun os</w>
fur ther</w>
com erci
ap pu
iss ement</w>
Secre tar
f unci
re lev
pl y</w>
G l
es per
em pl
ac ción</w>
anz a</w>
donn ées</w>
O NU
lég isl
per met
Pro to
di a</w>
dom aine</w>
h emos</w>
pr endre</w>
sin ce</w>
inter es
R é
oh ne</w>
ach i
Assemb lée</w>
is tencia</w>
dé m
au p
men os</w>
cri p
cap i
con cep
V i
ar án</w>
t ungs
+ </w>
ad ap
zw ei</w>
a di
o g
ent sch
protec ción</w>
l agen</w>
n ég
de f
gen ann
f ourn
ra ient</w>
Dur ch
min is
bi en
mani ère</w>
Organ isation</w>
ant wor
n ú
bu il
hu i</w>
c ase</w>
2 7</w>
a de</w>
b on
am en</w>
be gr
T A
geführ t</w>
dem ocr
itä t</w>
sel b
B ur
cuesti ones</w>
Jahr en</w>
E W
v alu
estr uc
ec er</w>
eb </w>
o ire</w>
no te</w>
s et</w>
be fore</w>
mu ß</w>
m g</w>
éta bli
M I
com peti
au jour
Vorsch lag</w>
zi eh
recom men
G er
tr ic
th ing</w>
ñ o</w>
s enti
g esti
au g
ativ as</w>
dar auf</w>
cr isis</w>
al er</w>
bas ed</w>
at er
g il
o ver
lor s
Unter stütz
2 8</w>
sec teur</w>
œu vre</w>
ö h
g ehen</w>
es se</w>
is c
atten tion</w>
contin ue</w>
re gl
l l</w>
wor den</w>
provi de</w>
ch arg
Reg lamento</w>
k ten</w>
e ach</w>
ens ure</w>
ä hi
n ehmen</w>
at ori
uni on</w>
si cht</w>
geh t</w>
form ation</w>
he alth</w>
O ff
incre as
mun do</w>
génér ale</w>
mé di
En er
or ía</w>
aujour d'</w>
with out</w>
o -
ges tion</w>
ta d</w>
ab r
ar eas</w>
2 6</w>
follow ing</w>
in nov
el l</w>
j ets</w>
l ong</w>
nuestr a</w>
ex cep
C an
ciud ad
a qu
ori ties</w>
condi ciones</w>
b al
° </w>
Program me</w>
issu e</w>
ch ts
in o</w>
ag u
no ti
au v
z ahl
res our
implem entation</w>
A N
ú n
pr eg
ou gh</w>
or t</w>
ut z</w>
sel on</w>
tw endi
prés ente</w>
st ud
aff ec
él é
man era</w>
exis te</w>
dé j
per mi
qu isi
én é
ism os</w>
prés ent</w>
pun kt</w>
á mb
w w
199 7</w>
da für</w>
ayu da</w>
europ e
en a</w>
re uni
é cu
organis ations</w>
ta ciones</w>
mer o</w>
ci do</w>
dev ons</w>
t on
Län der</w>
eng ag
ex por
nec ess
ve aux</w>
ch ter
ff en</w>
pr ati
sol l</w>
m ob
obje tivo</w>
il leurs</w>
déj à</w>
disposi tions</w>
qu elle</w>
im por
n ing
fin den</w>
D es
gr av
n eh
mi ch</w>
con secu
im iento</w>
ac coun
fin al</w>
comm er
particuli er</w>
is en</w>
fu ture</w>
partic ular
mon de</w>
c ell
cum pli
Inform ationen</w>
W ettbewer
ó r
e fic
diff icul
h ace</w>
dispon i
cons équ
go od</w>
avail able</w>
pa z</w>
2 9</w>
Prä sid
vo tre</w>
polític as</w>
é ch
san té</w>
z un
produc tos</w>
be d
R ates</w>
Unterstütz ung</w>
g a</w>
Ge bi
l t</w>
f ace</w>
trans port</w>
spr ech
nom bre
tran si
vo te</w>
em e</w>
medi o</w>
v é
pe di
funci on
de li
tari at</w>
S eg
Z eit</w>
ens emble</w>
han del
än der
do ch</w>
E m
ta ux</w>
ble a</w>
ava it</w>
gli ch
ses iones</w>
particip ation</w>
vi e</w>
entrepr ises</w>
E S
coll ec
es fuerz
ma inten
w es
norm as</w>
ti z
di o</w>
a che</w>
gan g</w>
ok rati
s m
civi l</w>
l ine</w>
dé f
e u</w>
quali ty</w>
pati ents</w>
ann ée</w>
son dern</w>
2 ,
b an</w>
N ach
to y
tu d</w>
comun ic
éri eur</w>
ven ir</w>
f ör
ß t</w>
A sam
K </w>
g s</w>
issu es</w>
ó g
EU R</w>
ad v
ej empl
nú mero</w>
seg un
gen en</w>
id as</w>
dem and
Asam blea</w>
au en</w>
ob st
cha que</w>
s c
ge währ
st ehen</w>
nuestr o</w>
a z</w>
sou h
me dic
comm it
ges etzt</w>
nation ale</w>
l í
uk tur
con cre
pério de</w>
Haushal ts
ist an</w>
K in
prev en
import antes</w>
l arg
Ver h
par ten
le t
dat a</w>
medi ante</w>
enn es</w>
schließ lich</w>
ci er
Tran s
k ung</w>
is ch</w>
K ommiss
Tri bunal</w>
Ver k
Mar k
dec isión</w>
w ach
capaci dad</w>
sam en</w>
cor rec
is o</w>
in nen</w>
an ge
materi a</w>
go vern
tr ou
personn el</w>
P or
dra ft</w>
h er</w>
do es</w>
st and</w>
ê t</w>
li </w>
is pi
s pre
probl emas</w>
j ou
por que</w>
v eil
L eb
milli ons</w>
Herr n</w>
po bl
pf li
j etzt</w>
S er
N o</w>
ein ige</w>
Prob lem
necess ary</w>
in t</w>
ihr en</w>
recom end
ow n</w>
ed s</w>
al c
pen di
fér ence</w>
Er geb
neces ario</w>
B il
al isi
ac ep
read y</w>
cor por
nuev o</w>
objec tifs</w>
entr o</w>
am e
olog y</w>
ör den</w>
probl èmes</w>
be li
dem ent</w>
r ôle</w>
parti r</w>
human it
sta tu
wür de</w>
ex ten
teil ung</w>
comun it
abili ty</w>
mes ure</w>
av i
rec ei
tr it
Par t
t lich</w>
stell t</w>
v oll
s ed</w>
l ei
obje tivos</w>
ra z
ti sti
it z
n ouv
k ün
k r
whi le</w>
f äl
tr on
z eit</w>
est ar</w>
Intern et</w>
er ten</w>
gen ce</w>
empres as</w>
cas os</w>
mon di
cer ti
dar über</w>
an ia</w>
all er</w>
pres ent</w>
reg ul
ci toy
resul tados</w>
reli gi
aff en</w>
pl usi
inv ol
er rei
plusi eurs</w>
at te</w>
ejempl o</w>
lo i</w>
b éné
tiv as</w>
S tu
G en
s ensi
t ly</w>
to day</w>
9 0</w>
provi ded</w>
gab e</w>
M ö
gan z</w>
pu és</w>
P ol
H il
individ u
S te
di re</w>
an o</w>
dém ocrati
d ab
op port
ann ées</w>
poin ts</w>
UN I
úblic a</w>
qu ement</w>
recom mand
l us
í s
cu al
inter nacionales</w>
fi z
fle xi
I II</w>
vi ent</w>
vou dra
ens eign
ou tre</w>
2 5
at eur</w>
me eting</w>
E l</w>
z o
I tali
te fois</w>
währ end</w>
organiz aciones</w>
ing ungen</w>
territ ori
mé dic
C ar
Ver fahren</w>
differ ent</w>
gr öß
ent sprech
pers pec
neg oci
alo gue</w>
s en
des pués</w>
E R
conta c
pu esta</w>
d ía</w>
tou tefois</w>
ho y</w>
ti tre</w>
is ch
k no
ent w
gr ande</w>
politi schen</w>
be treff
lar ge</w>
C u
se u
aci on
m as
f il
199 6</w>
a -
Secré taire</w>
ég ard</w>
us ti
mo der
eff et</w>
ma chen</w>
B u
r ur
pré v
tro is</w>
a ta
for ce</w>
viol ence</w>
sta at
s aid</w>
t ement</w>
struc tur
P ri
in al</w>
t ema</w>
J ap
der s</w>
se ver
Com unidad</w>
Bei hil
v ement</w>
modi fic
intro duc
el abor
ré alis
I V</w>
éc n
op ort
k ur
s einer</w>
fi x
unser er</w>
jec u
cambi o</w>
re cher
Commun au
fi er</w>
adop ted</w>
G ouvern
b ro
satis fac
ben efici
Län dern</w>
gu es</w>
geleg t</w>
contr ôle</w>
ord re</w>
O N
acces s</w>
is er</w>
thre e</w>
es as</w>
ri es
em pe
versch ied
tre at
h é
schaf ten</w>
ti po</w>
8 0</w>
Mö glich
resour ces</w>
äl t</w>
Min istr
as istencia</w>
trat a</w>
m et</w>
G re
preg un
si ones</w>
b aj
s af
ts -
Commun ity</w>
m eine</w>
salu d</w>
ty pe</w>
í dic
nation alen</w>
ü c
sti ll</w>
si de</w>
l ast</w>
probl ème</w>
pun to</w>
af ec
sch en
l leg
aten ción</w>
in cl
se qu
op e</w>
t ur</w>
a un
R ep
grou p</w>
den n</w>
wor k
rè g
in ess</w>
p aci
qu el</w>
li gn
5 5</w>
z ep
olu tion</w>
ti mes</w>
an nu
pend ant</w>
ti r</w>
20 10</w>
Kon tr
sin o</w>
Con stitu
otr a</w>
com men
import ancia</w>
posi ción</w>
tr eten</w>
ech a</w>
Sta aten</w>
E C</w>
Gouvern ement</w>
Str ateg
deber ía</w>
pr ä
ig er</w>
an k
ß en</w>
pfli cht
Secre tario</w>
In d
lu i</w>
ciudad anos</w>
justi ce</w>
pár raf
ti que</w>
pu estos</w>
voudra is</w>
Parlam ents</w>
it es</w>
D er
tr os</w>
le y</w>
envir onnement</w>
communic ation</w>
jun to</w>
m á
be tri
ati f</w>
en mi
cu los</w>
milli on</w>
re as
otr o</w>
reg ard</w>
Ges ch
inter n
peri od</w>
soci ales</w>
enz en</w>
P un
d ings</w>
du e</w>
gi ven</w>
St and
g ni
sim il
t écn
memb ers</w>
ei te</w>
dab ei</w>
duc ation</w>
ain s</w>
lich keit</w>
Grou p</w>
gr und</w>
K om
b s
U r
deci r</w>
Organ iz
ass ung</w>
ti l</w>
se ul
conform ément</w>
ver b
St ell
des halb</w>
199 5</w>
cr u
olo gie</w>
autor ités</w>
l ess</w>
pr ises</w>
weit ere</w>
stan ces</w>
au tom
L and
ep </w>
re it
man agement</w>
p el
s eit</w>
fonc tionn
CE E</w>
exemp le</w>
aliz ación</w>
An wendung</w>
rel ations</w>
Rep ública</w>
deb emos</w>
cre o</w>
Ko so
d oll
L and</w>
nou veau</w>
vi er</w>
emple o</w>
z ü
l au
educ ation</w>
con duc
Ira q</w>
res ta
or ity</w>
l ang
I C
F all</w>
T re
xi ème</w>
probl ema</w>
0 .
to ur
par tes</w>
T eil</w>
Sicher heit</w>
much os</w>
Poli ti
est ini
Be deut
uti l
dich o</w>
si a</w>
R O
Zi el</w>
Inv esti
Jah re</w>
ear ch</w>
to da</w>
actu al</w>
h en</w>
quo i</w>
For sch
ro le</w>
Ar beit</w>
t eil</w>
ech n
M al
él abor
Ver trag
ac y</w>
ap pr
ätz e</w>
sti mm
effec tive</w>
ism us</w>
m ir</w>
Bedeut ung</w>
b in</w>
ici </w>
f ähi
Er zeu
w eil</w>
apar tado</w>
jur idi
M an
assur er</w>
dre i</w>
ech os</w>
war en</w>
nécess aire</w>
Seg uridad</w>
tic os</w>
as oci
mit tel</w>
m on</w>
administr ation</w>
Ver brau
Pro je
basi s</w>
f rei
hab ía</w>
disposi ciones</w>
ser ont</w>
régi on</w>
$ </w>
s ter
Isra el</w>
I ni
pro jets</w>
n un</w>
éri e
e te</w>
i gen</w>
to t
ex écu
premi ère</w>
ch a</w>
s how
vie le</w>
ch ung</w>
der en</w>
zu g</w>
mu ch</w>
con fi
ou p</w>
er st
off ici
qui er</w>
much o</w>
me tho
s ommes</w>
ac es</w>
li mi
cht lich</w>
éta bl
E S</w>
c y</w>
suc ces
pre ocup
gesti ón</w>
produc ts</w>
l uss</w>
S pe
procédur e</w>
F ra
so ient</w>
n ing</w>
k er</w>
Ener gi
Ih nen</w>
br ingen</w>
apo y
rel acion
enf alls</w>
d ó
c at
v ul
wor king</w>
rais on</w>
can di
eb en
gr ow
lon g
ih r</w>
investig ación</w>
des e
b ene</w>
segu ir</w>
dec ision</w>
v in
7 0</w>
ten emos</w>
L age</w>
w ays</w>
rap i
nat ür
wich tig
2 4
z o</w>
Mit tel</w>
soci été</w>
t ée</w>
al ready</w>
me ans</w>
mö glich</w>
l es
o ti
i vi
ser á</w>
ab a</w>
th ir
los sen</w>
Communau té</w>
poten ti
cual quier</w>
fu gi
ar t</w>
p en</w>
i zi
ade cu
ten u</w>
b or
ein zel
selb st</w>
lo g
as un
ff e</w>
Ver wal
s agen</w>
di alogue</w>
nég oci
di versi
pri x</w>
ent er</w>
Koso vo</w>
autor idades</w>
ri l</w>
inf lu
ti </w>
Grou pe</w>
intro du
adop tion</w>
fa ç
n ei
seg ún</w>
M illi
aff aires</w>
ad u
é qui
F ör
résul tats</w>
Men schen
mej or</w>
r up
Fr agen</w>
f isc
ei g
er fol
K ap
di rig
tig keit</w>
fre e</w>
comm on</w>
aus ge
r än
am ong</w>
L .
y o
gr andes</w>
esfuerz os</w>
ä ß
princip ales</w>
it a</w>
p ing</w>
secon d</w>
resul ts</w>
Zusammen hang</w>
ci r</w>
B estimm
plaz o</w>
citoy ens</w>
So zi
at ely</w>
pre vi
k es</w>
mo is</w>
objec tif</w>
ré gl
emplo i</w>
initi ative</w>
con centr
f lo
per tin
I S
ord n
un ft</w>
sel ec
ück sich
Assemb ly</w>
Uni dos</w>
ke y</w>
J un
jur ídic
mom ento</w>
äm pf
hel p</w>
aun que</w>
er as</w>
pr ise</w>
fundam ental</w>
i g</w>
C ommission
lieg t</w>
Un is</w>
dar f</w>
ei lig
ta miento</w>
pr is</w>
2 3
b on</w>
Bür ger</w>
an ges
Reg ierung</w>
a w
ar ri
ie der
ag t</w>
a it
imp act</w>
uc k</w>
estr ateg
encour ag
cour se</w>
A f
a ir</w>
D ev
ic an</w>
ro om</w>
memb re</w>
aus sch
av is</w>
S ep
tec n
au di
Sec urity</w>
ou se</w>
all em</w>
trav aux</w>
Entschei dung</w>
acc ès</w>
Ré publique</w>
ab o
ê te</w>
Mit tel
min im
defin i
2 -
N ov
pl en
w är
res erv
paragrap h</w>
A mer
J anu
c eux</w>
is on</w>
hi gh</w>
ess en</w>
an der</w>
Entwickl ungs
zu ständi
th an
pobl ación</w>
dé termin
im prov
organ isation</w>
grup o</w>
Gr ün
inner halb</w>
z en</w>
st a</w>
Präsid ent
t ées</w>
Gemein schafts
wich tig</w>
y er</w>
con t
cré di
docum ents</w>
gn isse</w>
proyec tos</w>
b a
p ouv
es pec
déb at</w>
ts- Unis</w>
n et
propos al</w>
neces idad</w>
Ar ticle</w>
tra de</w>
olog ical</w>
premi er</w>
5 6</w>
nuestr os</w>
X </w>
Ch ar
5 .
crit eri
att ein
ag it</w>
fac t</w>
tou jours</w>
S ou
probl ems</w>
gu er
con serv
ar a</w>
wä h
vel les</w>
vid a</w>
ne eds</w>
es c
nouv elle</w>
ser ait</w>
M r.</w>
res tric
ol d</w>
Ini ti
annex e</w>
hän gi
d ür
Re cht</w>
util isation</w>
cons omm
an to</w>
M me</w>
agre ement</w>
certa ines</w>
bl ei
cu er
comm ission</w>
propor cion
speci fic</w>
inten si
Änder ungsan
conf li
ff t</w>
f ung</w>
institu ciones</w>
coordin ation</w>
Ind ustri
us ses</w>
regi on</w>
gu ar
gouvern ement</w>
iss ent</w>
of fr
z one</w>
k om
ámb ito</w>
si c
L ös
T ag
ta das</w>
vorsch riften</w>
ol óg
genann ten</w>
nou velles</w>
eur os</w>
acces o</w>
commun ity</w>
discrimin ation</w>
s ab
di ce</w>
H andel
d y</w>
ci es</w>
P -
tel s</w>
capi tal</w>
é tran
iss ant</w>
hay a</w>
de ta
al tern
man ten
ac tive</w>
an tage</w>
ri ch
cas es</w>
ev id
trans fer
do se</w>
ther ap
Di enst
e th
pres sion</w>
rel ated</w>
teri or</w>
O M
2 7
e k</w>
con na
and s</w>
o un
pu t</w>
tem por
K r
f er</w>
at ur
enn ent</w>
relev ant</w>
g et
Off ice</w>
vis ant</w>
l l
faç on</w>
Ges und
A T
Com is
prim era</w>
Fr ance</w>
- ci</w>
EW G</w>
V ol
s pec
en cu
O N</w>
ali men
curr ent</w>
ier ungs
wä re</w>
außer dem</w>
co û
o le</w>
doll ars</w>
gr at
entsch ei
g et</w>
g eri
Per son
párraf o</w>
ci tiz
6 .
b it
all er
5 9</w>
m ehr
end ant</w>
fav or</w>
con ver
n om</w>
spre chen</w>
su fici
S erv
in k</w>
gre at</w>
F ol
tar y</w>
í ci
can not</w>
tra ining</w>
ac comp
or ías</w>
progr ess</w>
c entre</w>
A gen
ex o</w>
com ún</w>
at s
ten d
garanti zar</w>
probl em</w>
le it
equi p
princip al</w>
su jet</w>
e ver
Leb ens
hr en</w>
2 9
D eu
des ign
futur o</w>
ter me</w>
- -
Commission er</w>
el ung</w>
O b
propu estas</w>
la quelle</w>
jec ts</w>
y- General</w>
ê ts</w>
wirk ungen</w>
ser i
wh e
f lu
centr al</w>
kün f
éta ient</w>
le ad
vol un
ur g
5 8</w>
ré du
solu tions</w>
us t</w>
war ds</w>
N i
h on
chang es</w>
no twendi
Sep t
espe cial</w>
l ec
c le</w>
ta t</w>
st eht</w>
ame work</w>
seul ement</w>
ali ty</w>
Re public</w>
dé lég
best eht</w>
au to
Por tu
en heit</w>
a fr
fav eur</w>
regi ón</w>
3 5</w>
3 2</w>
gr und
re chte</w>
un es</w>
pe ace</w>
jus qu'</w>
ent emente</w>
pl é
ap pe
ol s</w>
spe zi
Beh örden</w>
th ough</w>
wi eder</w>
lä ge</w>
obst ante</w>
Secretar y-General</w>
port ed</w>
sch ein
tsch rit
º </w>
eli min
Besch äf
pro ch
Dev el
Sept ember</w>
w ollen</w>
su g
ex pec
el los</w>
im m
con fer
Pro z
3 ,
aspec ts</w>
ent ar</w>
z ed</w>
setz en</w>
bon ne</w>
F re
h es
eh l
pl ans</w>
ativ o</w>
w ho
tic s</w>
pres id
O c
ac ter
di g
könn te</w>
eur o</w>
ac er
v ision</w>
e jecu
w ant</w>
plan te
chter stat
con soli
ó n
Minis ter</w>
3 0
sta ff</w>
sel f</w>
f y</w>
béné fici
su is</w>
nécess aires</w>
î tre</w>
fun c
& </w>
2 8
pen se</w>
grup os</w>
medi da</w>
s ei
ex tra
poli ce</w>
syst ems</w>
presu puesto</w>
dem os</w>
en ing</w>
algun as</w>
Devel op
c alidad</w>
suff is
sch on</w>
quali té</w>
ap par
tob er</w>
andl ungen</w>
sta tisti
auc oup</w>
W elt</w>
us ing</w>
m eil
économ iques</w>
at or</w>
am i
be aucoup</w>
particip ación</w>
mo do</w>
es tamos</w>
t on</w>
be w
Z w
B i
techn ologi
am b
posi tive</w>
ru les</w>
199 4</w>
th s</w>
men cion
ex er
e very</w>
évalu ation</w>
ul tur
finan cement</w>
n ess</w>
profes si
I m
qu a
l as
L e</w>
arbeit en</w>
R ück
develop ing</w>
a cht</w>
S E
pl ement</w>
i gen
auth orities</w>
lu tte</w>
sta te</w>
vi el</w>
po co</w>
treat ment</w>
ta s
öl k
un den</w>
rap porteur</w>
olog ía</w>
s am</w>
initi atives</w>
cu st
inv est
c ateg
es ses</w>
er sten</w>
exam ple</w>
5 7</w>
conform idad</w>
gr aci
4 5</w>
ein fa
re form
v éri
ju dici
au ment
lar es</w>
pr u
relativ es</w>
en qu
miembr o</w>
con oci
règ les</w>
h ä
zur ück
per form
so st
So cial</w>
bei m</w>
Direc tiva</w>
R olle</w>
Intern acional</w>
Su b
it os</w>
s avoir</w>
sec re
sch o
tex te</w>
199 0</w>
re al</w>
z usammen
progr ès</w>
ci ty</w>
mom ent</w>
psy ch
For tschrit
h ei
li fe</w>
j et
compr is</w>
ben ef
loc ales</w>
l em</w>
especi almente</w>
Conven ción</w>
achi ev
ap prov
Me di
H e
Tra tado</w>
in dé
C I
ell schaft</w>
nat ure</w>
ta b
op h
pour rait</w>
recher che</w>
dó lares</w>
s ehen</w>
P A
p auv
gil t</w>
E bene</w>
T o
amélior er</w>
multi lat
blic k</w>
arm as</w>
ü s
li b
europ ea</w>
.... ....
Politi k</w>
ac ciones</w>
incre ase</w>
is cher
estruc tur
ter m</w>
instrum ents</w>
politi sche</w>
pap el</w>
d in
G eg
R ap
An hang</w>
particular ly</w>
lab or</w>
nou veaux</w>
letz ten</w>
ful l</w>
ph y
ar tic
k ed</w>
k tor</w>
au m</w>
pens es</w>
pré sid
ful ly</w>
beli eve</w>
dev raient</w>
sm all</w>
a ún</w>
pré par
contribu tion</w>
in as</w>
C .
har mon
cel u
J usti
fi que</w>
wirtschaf tlichen</w>
pe u</w>
inn en
h eiten</w>
begr ü
A gr
renfor cer</w>
d entro</w>
ali tät</w>
m äß
éli ci
al ors</w>
evalu ación</w>
hel d</w>
podr ía</w>
comun idad</w>
may oría</w>
mejor ar</w>
económ ica</w>
pou voir</w>
ta da</w>
unter sch
f élici
res earch</w>
co s
ar mes</w>
nuev os</w>
é ducation</w>
Z eit
grou ps</w>
f li
C ol
wel che</w>
su sta
we isen</w>
m ism
dis e
reci b
gegen über</w>
é d
pr ó
memb er</w>
vi g
R u
to o</w>
procedi miento</w>
fin d</w>
nuev a</w>
ver fahren</w>
stud y</w>
Nov ember</w>
ab solu
di men
f echa</w>
Ar t</w>
weit er</w>
Prob lem</w>
an other</w>
vie ws</w>
K enn
soci edad</w>
educ ación</w>
ati fs</w>
vor ges
priv ate</w>
internation alen</w>
señ al
w ard</w>
exper ts</w>
at ure</w>
pe que
lors que</w>
S itu
resta ur
Fon ds</w>
ni e</w>
forder ungen</w>
Um setzung</w>
nuev as</w>
A I
grou pes</w>
t z</w>
soci ale</w>
déc embre</w>
P ak
dem o
ag enda</w>
pa y
iss en
dav on</w>
pr ac
cl am
si gue</w>
ob jet</w>
Problem e</w>
whe ther</w>
wir tschaft</w>
l ini
inform es</w>
Éta ts-Unis</w>
sp i
Sozi al
ti schen</w>
nation ales</w>
z entr
maj or</w>
legisl ación</w>
cab o</w>
g s
hab er</w>
cep endant</w>
qu er
ay ant</w>
st u
n t</w>
Kommiss ar</w>
communau taire</w>
princip io</w>
sou tien</w>
mis sions</w>
mon it
produc ción</w>
F eder
accoun t</w>
eg o</w>
m ec
on ce</w>
tr a</w>
ab hängi
b est</w>
M ein
Beri chterstat
ativ en</w>
ir á</w>
f ast</w>
Ne w</w>
le isten</w>
ver besser
mit ted</w>
re ch
andl ung</w>
ex pl
bus iness</w>
pr on
unterstütz en</w>
pour quoi</w>
an gen</w>
en contr
li bre</w>
fon dam
G eri
po der</w>
é tant</w>
quier o</w>
Verein ig
itä ten</w>
ma xim
z ación</w>
investi ss
nu clear</w>
entw ick
C our
ger n</w>
soll en</w>
commer ce</w>
alc anz
v an</w>
organiz ations</w>
do wn</w>
199 2</w>
all gem
Program m</w>
a x
er halten</w>
er zi
h ö
ver fü
energ y</w>
m os</w>
fic ina</w>
Grund lage</w>
2 6
senti do</w>
c ause</w>
E N
me chan
go vernment</w>
in corpor
199 3</w>
pl om
ust ed</w>
o th
Hil fe</w>
Develop ment</w>
s ch</w>
ten dr
cl os
beso in</w>
Syst em</w>
m ag
ex erci
ch am
ber i
en das</w>
it er</w>
wi eri
er an</w>
si di
vor gesch
asi mismo</w>
qu ant</w>
com </w>
D rit
ent u
inde pend
coll abor
in d</w>
gl eich</w>
N utz
rap ports</w>
d ad
all ed</w>
an i
v ali
vo y
ti tu
an ci
av en
um s</w>
internation ales</w>
por ter</w>
parti ci
ent ed</w>
av ing</w>
a illeurs</w>
e di
Ste uer
t nis</w>
comp ens
st off
opini ón</w>
én er
responsabili dad</w>
appro ach</w>
aj e</w>
5 00</w>
char ge</w>
financi ación</w>
é x
re fl
Z uk
resul t</w>
establish ed</w>
europä ische</w>
Ab kommen</w>
För derung</w>
ONU </w>
gi ve</w>
oblig ations</w>
Confer encia</w>
Ver besser
t un</w>
gl au
for ces</w>
ie le</w>
in e
communau té</w>
P u
rég im
a k</w>
reg ar
Fra ktion</w>
concern ed</w>
E s
W ar
industri e</w>
moy ens</w>
k now</w>
proposi tions</w>
lä u
L is
U S</w>
sci enti
néces si
Sch utz</w>
régi ons</w>
eh mi
weit erh
con du
am end
ra te</w>
ra ft</w>
S p
su sp
F ri
mer ci
ti ent</w>
D é
auc une</w>
B est
é lev
rei ch
dici embre</w>
Wor ld</w>
sigui ente</w>
lieg en</w>
cu anto</w>
ré e</w>
c op
un de</w>
ac to</w>
ß e</w>
weiterh in</w>
ta king</w>
bet ter</w>
re fi
esta do</w>
res puesta</w>
u su
vari ous</w>
législ ation</w>
ta in</w>
pr il</w>
Kol legen</w>
st eh
mun dial</w>
i or</w>
in cid
comm uni
Portu g
natür lich</w>
sti m
promo tion</w>
k an
ge f
ma king</w>
neg oti
m uni
espec ífic
B innen
re merci
Vorsch riften</w>
ein mal</w>
p én
res s</w>
auc un</w>
aqu í</w>
sever al</w>
pl ay
comm erci
M emb
el em
cro issance</w>
cultur al</w>
straté gie</w>
tr as
graci as</w>
c are</w>
v ec
em pre</w>
sou lign
con nec
an zu
b ind
d ungs
g an</w>
ma ßnahmen</w>
Sicher heits
li o</w>
grap h
efec tos</w>
actu ellement</w>
et was</w>
ec u
7 5</w>
sec tion</w>
ind us
l lam
W el
R ei
os a</w>
nex t</w>
Y </w>
á fic
n av
di d</w>
d y
cht et</w>
pers ons</w>
so tros</w>
regi on
si empre</w>
fr an
O ri
deu xième</w>
cir cul
ts äch
princip e</w>
ach st
docum ento</w>
car ri
ativ os</w>
os o</w>
pro ject</w>
pró xim
so wohl</w>
zw ar</w>
200 </w>
m ement</w>
ah r</w>
ish ed</w>
se par
ra di
am oun
Fr auen</w>
ass ess
auf grund</w>
gu t</w>
gr and</w>
appu i</w>
últim o</w>
p et
E -
in sta
F lu
pop ul
um ent</w>
ab sch
finan c
Th ema</w>
quisi era</w>
adop té</w>
P P
zieh ungen</w>
infr as
R om
c en
ann t</w>
ô t</w>
D aten</w>
i endo</w>
d ang
L a
ap i
sub ject</w>
fr amework</w>
A L
u ß</w>
á tica</w>
tr u
ci li
forder t</w>
form ación</w>
medi os</w>
m ic
dec isiones</w>
y en</w>
appropri ate</w>
s ay</w>
cl as
teri ores</w>
propos ed</w>
sigui entes</w>
Afr ique</w>
Bestimm ungen</w>
fr ica</w>
fa is
trait ement</w>
r o</w>
recon na
mondi ale</w>
ex cell
b au</w>
3 3</w>
recommen d
mar kt</w>
si endo</w>
tr as</w>
Über ein
pon er</w>
exerci ce</w>
qu anti
incl uso</w>
C hi
mé can
prov isions</w>
um fass
am p
dom aines</w>
ar ch
f ec
pon ente</w>
re té</w>
no sotros</w>
tra ité</w>
de pend
v ac
cl é
individ ual</w>
citiz ens</w>
mec an
US A</w>
w o</w>
ad amente</w>
f our
A pril</w>
We ise</w>
zi ehen</w>
employ ment</w>
v í
D A</w>
9 5</w>
reuni ón</w>
ent er
qu elles</w>
ous ly</w>
nombre ux</w>
d ge</w>
effec tu
Confer ence</w>
tex to</w>
os as</w>
f as
ins pec
fi eld</w>
4 -
C H
cu al</w>
öffent lichen</w>
En de</w>
ti l
ro oms</w>
uni que</w>
bei den</w>
cré ation</w>
Zuk unft</w>
geg eben</w>
for t</w>
ch all
tr im
eh men
ag no
er ungs
mon tant</w>
an te
opini on</w>
i as</w>
inclu de</w>
S E</w>
segun do</w>
cre cimiento</w>
st oc
e f</w>
ta bles</w>
T eil
m einer</w>
cre ación</w>
des sen</w>
h acia</w>
F ischer
w eit</w>
or e</w>
N amen</w>
Ver trag</w>
geh ör
L A
komm t</w>
p ul
inter és</w>
ten ce</w>
ß en
Portug al</w>
leist ungen</w>
legisl ation</w>
in versi
t u</w>
ma te</w>
pru eb
H aup
en fer
Ver pflicht
Uni versi
Aus wirkungen</w>
qu els</w>
dis pos
cons ci
Señ or</w>
as eg
ang em
wes ent
D ar
Entsch ließ
B em
wh y</w>
f ar</w>
in vi
W achst
s ens</w>
schn it
n äch
C entr
um en</w>
in ation</w>
o ds</w>
intér êt</w>
th ink</w>
at ory</w>
Fr an
Con férence</w>
T echn
Z iele</w>
Pl an</w>
in ci
ch in
end s</w>
fon dos</w>
di re
ver wen
dé penses</w>
prác tica</w>
ci o</w>
si x</w>
estable ci
effec tiv
eig n</w>
finan zi
an del</w>
pré occup
for t
form es</w>
bre it
soli dar
h os
Cour t</w>
all ow
ab ord
pro to
komm ens</w>
m l</w>
di do</w>
w egen</w>
M un
re view</w>
a la</w>
S pan
le ar
c y
rel ative</w>
zu stellen</w>
em en</w>
T er
z -
an exo</w>
k tion
gas tos</w>
re m</w>
en se</w>
económ ico</w>
M är
ul g
ar ía</w>
G ef
con curr
ter a</w>
er se</w>
pré sident</w>
Part ner
fr i
G i
cons en
ter ms</w>
d ri
pro hi
Deu tsch
= </w>
ag ne</w>
ré serv
grow th</w>
li ci
ig n</w>
f om
particuli èrement</w>
betri fft</w>
to ge
str u
dur able</w>
g ü
nu clé
techn ical</w>
ti ers</w>
h ô
en ess</w>
conclu sions</w>
ci onal</w>
k a</w>
ord s</w>
ori enta
W i
5 -
es cu
w a</w>
c enta
pe up
lu cha</w>
Ges am
tiv en</w>
tr ei
comm une</w>
t ten</w>
d ado</w>
au mento</w>
M il
obje to</w>
k ein</w>
w ater</w>
zon as</w>
Sch ul
i le</w>
M ehr
di ver
Ri ghts</w>
t ales</w>
thir d</w>
ed an</w>
poli cies</w>
ari an</w>
recon oci
regl am
fi ques</w>
su ivi
toge ther</w>
mittel n</w>
aller dings</w>
éta t</w>
infras truc
addi tion</w>
o les</w>
f fr
cu s</w>
er klär
e ded</w>
Situ ation</w>
B al
in able</w>
ac qu
to wards</w>
inf ec
environ ment</w>
ob ten
dis pens
p at
R el
f all
gr enz
tiv </w>
res ol
G ro
stimm ung</w>
geb ra
län dern</w>
p é
efec to</w>
ber nam
l argo</w>
besonder s</w>
erforder lich</w>
comerci o</w>
techni que</w>
ju in</w>
trans porte</w>
économ ie</w>
imp lic
fuer on</w>
De z
fo und</w>
g os
stand ards</w>
re ven
car act
déclar ation</w>
T R
sch er</w>
bec ome</w>
óm o</w>
un os</w>
ver ein
Bur eau</w>
requi red</w>
responsabili té</w>
4 ,
pro jects</w>
li m
air s</w>
fe w</w>
L A</w>
re vis
an as</w>
paci entes</w>
W o
bi o
déc isions</w>
buil ding</w>
fam ily</w>
bl o
e ful</w>
dr uck</w>
re ports</w>
gu eur</w>
ar ly</w>
t ér
Wettbewer bs
soci ety</w>
5 4</w>
in gr
Afr ica</w>
p ack
res te</w>
Be ispi
3 4</w>
zw ei
ré union</w>
F am
ei cht</w>
ul ta
hi er
Li ber
Par ties</w>
gemein samen</w>
Em pf
di vers
Z ahl
á p
étran g
ber ücksich
en vis
ih nen</w>
groß e</w>
en -
sost eni
col abor
ta x
quel ques</w>
eff ici
régl em
lo go</w>
aseg ur
ris k</w>
Regi on</w>
de ten
Wir tschaft</w>
G ar
w le
az a</w>
zei gt</w>
Durch führung</w>
wen iger</w>
v isi
vi v
j os</w>
ir a</w>
5 ,
Gener al
O S</w>
T a
neces idades</w>
Ad ministr
conf irm
am a</w>
tra tamiento</w>
materi al</w>
Stell ung
ap </w>
po demos</w>
ev a</w>
opport un
pu es</w>
j uni
contribu tions</w>
su cht</w>
ei che</w>
ac ro
L in
T ex
Dez ember</w>
jo int</w>
princip ios</w>
lini en</w>
ér er</w>
re cu
gen d</w>
P e
tex t</w>
suiv re</w>
estudi o</w>
co le</w>
g rei
gu bernam
l abor
re cht
mé tho
ul y</w>
fr age</w>
fr is
re cht</w>
chil d</w>
cul ture</w>
Gesch äf
3 6</w>
consider ed</w>
ab s
solu ción</w>
teil en</w>
beh al
Bed ingungen</w>
O p
accord ance</w>
ge wi
9 8</w>
T ä
Er klär
Sch rit
B et
4 8</w>
c ou
er mögli
ten s</w>
Minis ter
Ab sch
g as</w>
ré s</w>
etz en</w>
especi ally</w>
ci -
w issen</w>
Möglich keit</w>
N ational</w>
Eur o</w>
Ad d
mon tr
don de</w>
9 2</w>
ati c</w>
0 1</w>
bi a</w>
sep ti
par ta
duc tion</w>
si chtlich</w>
Dec ember</w>
rur al</w>
Dem okrati
pro ve</w>
ré c
l anc
oper ation</w>
u f
u li
b ack</w>
D I
ta ble
ing t</w>
ent en
est ed</w>
re ments</w>
land s</w>
x emb
autor iz
es si
li gen</w>
Af gh
v ista</w>
mit tl
en nen</w>
ir s</w>
Tur qu
9 3</w>
much as</w>
straté gi
mu tu
ch ez</w>
artic les</w>
v eh
th em
comprom iso</w>
Strateg ie</w>
teri or
Mitgliedsta at</w>
folgen de</w>
T im
p ê
an á
Milli onen</w>
9 6</w>
I B</w>
hal tung</w>
199 1</w>
E G
l ed</w>
i x</w>
an ta
w in
certi fic
ul o</w>
trit t</w>
S pr
aven ir</w>
resul tado</w>
tur es</w>
seg ur
muj er</w>
p age</w>
baj o</w>
sub st
accord ing</w>
uni vers
S al
d lichen</w>
ambi ente</w>
syst èmes</w>
viol encia</w>
cr it</w>
In strum
h and</w>
sour ce</w>
im pos
C our</w>
M r
ries go</w>
gouvern em
vol on
d ès</w>
compet encia</w>
beso ins</w>
Der echos</w>
lis te</w>
un as</w>
ämpf ung</w>
ens a</w>
Vorsch läge</w>
person ne</w>
C N
declar ación</w>
ever y
trau m</w>
on a</w>
som e
nor mes</w>
spé cial</w>
on g
is ra
Tre at
l av
K re
aff ung</w>
fo od</w>
ar o
int érieur</w>
concern ing</w>
des empe
L es</w>
go ing</w>
juni o</w>
B os
sol o</w>
DE R</w>
sou s-
pr is
3 7</w>
O R
sol che</w>
com ment</w>
moy en</w>
re ç
Ver fü
reco gni
estrateg ia</w>
públic o</w>
en or
S in
L '</w>
pers on</w>
ent as</w>
mainten ant</w>
i d</w>
éner gie</w>
dür fen</w>
ver sion</w>
di plom
or ing</w>
P ati
lan de</w>
os os</w>
ri er</w>
pro z
il les</w>
4 9</w>
bi eten</w>
y st
T err
h ope</w>
on c
tur n</w>
logr ar</w>
S ud
zus ätz
sin g
v isión</w>
D S</w>
N ationen</w>
1 -
Unter su
trav és</w>
s einen</w>
u ch</w>
da ys</w>
recommand ations</w>
verschied enen</w>
différ ents</w>
con vient</w>
europe o</w>
nécessi té</w>
suivi </w>
man u
develop ed</w>
difer entes</w>
nation aux</w>
ac ts</w>
señ ora</w>
ser ía</w>
veil l
establ ecer</w>
sist emas</w>
Be k
P NU
R isi
un idades</w>
ag ain</w>
rég ime</w>
a im</w>
instrum ent</w>
éta ire</w>
hin aus</w>
19 6
sup plé
fr ente</w>
experi ence</w>
Ergeb nisse</w>
C am
p les</w>
regi onales</w>
è te</w>
fun ción</w>
ti eren</w>
ali a</w>
handel t</w>
afr ic
ier ten</w>
i tation</w>
públic a</w>
régi on
podr á</w>
fa i
ww w
pl at
2 .</w>
Ko sten</w>
av aient</w>
inst all
An t
cr ise</w>
VI H</w>
em er
fal ta</w>
4 4</w>
cri b
igu al
fer enz</w>
fron ti
Bel gi
z ones</w>
f our</w>
respons ables</w>
ti ques</w>
ca sion</w>
juridi que</w>
des ta
CE F</w>
mes es</w>
dé ta
hé sion</w>
b zw
coll è
Pr ü
oc casion</w>
opér ations</w>
bzw .</w>
aspec tos</w>
con sta
respons able</w>
W er
Y or
fin det</w>
zon a</w>
o d
I P</w>
lis is</w>
s anc
donn er</w>
obier nos</w>
rec ent</w>
Mad ame</w>
u el
r as
technologi es</w>
K or
d ungen</w>
mi eux</w>
fr ag
ñ as</w>
par ece</w>
o t</w>
le vel
donn é</w>
agr ic
ré se
signific ant</w>
of f</w>
gr an
requi rements</w>
techni ques</w>
ein zu
j an
l à</w>
ec k</w>
medi a</w>
de j
Be tri
st en
O ficina</w>
eg a</w>
r ing
d um
sh e</w>
disponi bles</w>
natur al</w>
pas ado</w>
des truc
y et</w>
f au
v arios</w>
discus sion</w>
élé ments</w>
Regi onen</w>
mat ter</w>
procédur es</w>
um e</w>
fr u
Comis ario</w>
L at
kon tr
sp ä
y p
Verbesser ung</w>
c ed</w>
si tz
is ter</w>
qu ent</w>
spr ache</w>
econom ía</w>
su chen</w>
ti sche</w>
finan z
ran k
3 9</w>
terror isme</w>
ü hr
r ont</w>
M ission</w>
s í</w>
ah </w>
h r</w>
F äl
vi a</w>
responsi bility</w>
is tes</w>
ter cer
eit s
b á
Verh andlungen</w>
Gebi et</w>
régim en</w>
Pal estini
le ast</w>
00 00</w>
op en</w>
level s</w>
dar in</w>
rel aciones</w>
Hin blick</w>
h atte</w>
w o
ex tern
Be zug</w>
üs se</w>
Ver antwor
par ce</w>
fic ar</w>
terror ismo</w>
per fec
com ité</w>
human i
In tegr
posi bilidad</w>
fü n
l et</w>
tei le</w>
vi gueur</w>
ill et</w>
je unes</w>
ob en</w>
derni er</w>
o fre
F est
provi des</w>
www .
Präsident in</w>
inter vention</w>
num er
F rei
bil ater
gr ave</w>
wi eder
st er</w>
C A
ég alité</w>
qu ar
n es</w>
4 2</w>
f -
gemein same</w>
J une</w>
en tra
addi tional</w>
europe os</w>
ju di
ra .</w>
it ar</w>
relativ as</w>
Ein fu
m .</w>
ag o</w>
S lo
richt ung</w>
ti do</w>
encu entr
i tion</w>
le gi
9 1</w>
G el
e y</w>
ai rement</w>
p os</w>
comunic ación</w>
D an
sou vent</w>
hab r
A p
conflic t</w>
ag er</w>
ouv r
ap or
alisi erung</w>
re d
groß en</w>
us ement</w>
5 1</w>
Ab ge
procedi mientos</w>
bar en</w>
at ors</w>
A ff
Z ei
B ev
0 -
deb ido</w>
al go</w>
grav es</w>
tor en</w>
délég ation</w>
m ess
ór gan
ses ión</w>
Lös ung</w>
enf in</w>
9 7</w>
h in</w>
négoci ations</w>
po bre
Treat y</w>
T O</w>
dem ents</w>
publi k</w>
7 .
ad ul
po wer</w>
S ra.</w>
plan i
acuer dos</w>
K ar
recomend aciones</w>
pr o</w>
We g</w>
comp ati
Á frica</w>
C ommiss
er neu
ell er</w>
mism a</w>
dar an</w>
di á
m el
dé e</w>
li ght</w>
be tro
unser en</w>
organiz ación</w>
ber eich</w>
3 8</w>
sozi alen</w>
T ier
Yor k</w>
environ mental</w>
supplé men
L eit
fr agen</w>
ou ght</w>
march és</w>
m ar</w>
In di
f abr
s û
Co de</w>
änder t</w>
ar regl
Can ada</w>
neh mer</w>
ej erci
Des arroll
add ress</w>
A spe
5 2</w>
o eu
fol gt</w>
mer k
per mettre</w>
princip es</w>
at ten</w>
increas ed</w>
di f
eh e</w>
stand ing</w>
for tal
r on
sp ir
ex pli
energ ía</w>
port ing</w>
aci té</w>
fer n</w>
d one</w>
gebra cht</w>
k ra
he ur
lan gu
h aving</w>
f é
C ro
abo ve</w>
t elle</w>
Hum an</w>
Europ as</w>
pl ay</w>
cost s</w>
contex to</w>
UNI CEF</w>
extr em
Mein ung</w>
ser ie</w>
gen cia</w>
part ment</w>
sy m
im pli
sex u
im in
pl u
d ías</w>
w ish</w>
inter est</w>
zü glich</w>
eb ru
conf ér
rei b
exp lic
er ste</w>
ali tés</w>
en es</w>
pr et
entr as</w>
Desarroll o</w>
stän d
direc t</w>
ejecu ción</w>
off ers</w>
ning una</w>
Z us
d os
ent ale</w>
liber tad</w>
nuestr as</w>
l ist</w>
to dav
ta tsäch
ur r
hes ión</w>
je der</w>
setz t</w>
on ia</w>
zo gen</w>
gesam t</w>
correspon di
men tation</w>
ori es</w>
th us</w>
fer ner</w>
europé ens</w>
E conom
es sion</w>
lem ente</w>
D eb
ad ol
f ang</w>
M or
raf t
B .</w>
todav ía</w>
mi entras</w>
mob ili
se an</w>
c alled</w>
hab it
est ens</w>
D iv
r áp
hor as</w>
ou voir</w>
regi ones</w>
lig ne</w>
cl ose</w>
su s
ge o
contex t</w>
wirtschaf tliche</w>
F ebru
mon dial</w>
consecu encia</w>
fähi gkeit</w>
1 er</w>
Reg ulation</w>
proced ure</w>
av ez</w>
loc ated</w>
en jo
- S
ic amente</w>
ban k</w>
con v
I n</w>
pauv reté</w>
vo ie</w>
ex </w>
no ta</w>
E special</w>
Direc tive</w>
l eich
pobre za</w>
dav antage</w>
Lu xemb
U kra
Eur o
C entre</w>
Sch i
unterstütz t</w>
grap hi
Constitu tion</w>
der zeit</w>
ch em
un ternehmen</w>
sion en</w>
C as
enmi endas</w>
imm t</w>
der t</w>
eu se</w>
7 7</w>
S an
est o
bil dung</w>
Pr in
arregl o</w>
For m</w>
bi et
re form</w>
organis mes</w>
Kap it
negoci aciones</w>
erh eb
Verwal tungs
con ce
ehr s
k onn
C hr
migr ation</w>
particip ants</w>
ac o
dé la
propos als</w>
Presid encia</w>
and a</w>
trava ill
an ies</w>
com es</w>
F ahr
è ne</w>
sé ance</w>
ti er
sy n
f t
ord onn
plem ent
ris que</w>
strateg y</w>
capaci ty</w>
pr eu
ñ a</w>
o ires</w>
enta ux</w>
at os</w>
analy se</w>
al e
ar mon
val or</w>
cre ar</w>
pu eda</w>
6 2</w>
B en
0 2</w>
accord s</w>
fron ter
as ed</w>
p ir
gleich zei
re le
multilat er
ac te</w>
res pe
up on</w>
actu almente</w>
Be ziehungen</w>
ju illet</w>
c anti
ne te</w>
effic ace</w>
Ban k</w>
hist ori
k t
prot eg
refi ere</w>
bl o</w>
judi cial</w>
pe li
effic acité</w>
è ve</w>
Mar kt</w>
on d
h tt
€ </w>
sub mitted</w>
pr acti
w ahr
6 1</w>
Zu gang</w>
3 -
ti s</w>
constitu e</w>
aná lisis</w>
R ein
s ure</w>
appro che</w>
mon ths</w>
souh ait
im prove</w>
Spe cial</w>
í amos</w>
aro und</w>
pro li
g än
e g</w>
profes i
produ it</w>
sep t
co ver
weit er
d ly</w>
F un
eff ets</w>
M u
sim ple</w>
c arg
is ed</w>
f ont</w>
pré ci
ide a</w>
add ress
m ari
n ers</w>
isi erung</w>
pañ a</w>
dic tion</w>
s éri
al though</w>
6 5</w>
Bev ölk
of ten</w>
v os</w>
Ant wor
P res
ju ici
P an
dé s
or den</w>
F o
An geleg
eb enfalls</w>
ocrati c</w>
orig in
Rechts vorschriften</w>
er st</w>
gr o</w>
s ing</w>
consi gui
prom ouvoir</w>
Presid enta</w>
igual dad</w>
comp anies</w>
ges agt</w>
stan cias</w>
en fo
Sta ats
B us
wich tige</w>
Ein zel
wirk lich</w>
4 3</w>
servici o</w>
construc tion</w>
contr ô
n ed</w>
l auf
Verein ten</w>
ta bl
b anc
cur so</w>
Deutsch land</w>
el s
im porte</w>
ex pos
ein zi
tor i
C C
V ic
prov isi
6 ,
H ö
äu ßer
agricul ture</w>
D er</w>
Afgh an
inst al
ty pes</w>
D P</w>
w as
Ro y
ver ty</w>
â ce</w>
r om
certa in
pres ión</w>
her vor
direc tion</w>
F l
dif íci
3 00</w>
cuer do</w>
dis cu
relativ a</w>
val eur</w>
br it
B ulg
étu de</w>
gr âce</w>
agu a</w>
t arg
dem okrati
últim os</w>
4 6</w>
Fortschrit te</w>
garanti r</w>
sept embre</w>
om in
bili tät</w>
p ed</w>
d t</w>
htt p</w>
r ac
R ev
Person en</w>
- être</w>
av anc
id ing</w>
p il
wi de</w>
As un
in dem
Verfü gung</w>
off er</w>
fabr ic
S .</w>
Gr und</w>
ai der</w>
g é
eng agement</w>
prec is
lich es</w>
län der</w>
indus try</w>
asun to</w>
est -
Le y</w>
c .</w>
saf ety</w>
atr o</w>
Ih re</w>
prop er
re mo
ré es</w>
Aussch usses</w>
an ni
W </w>
abili té</w>
ag n
hist or
8 7</w>
sim pli
part ner
conclu sion</w>
al t</w>
li v
Inter esse</w>
tw are</w>
jan vier</w>
refl ec
inten tion</w>
enf ant</w>
éri que</w>
sel ves</w>
Initi ative</w>
di fic
. com</w>
ning ún</w>
. .</w>
analy sis</w>
M ill
Centr al</w>
W ähr
4 1</w>
Serv ice</w>
ex ces
e aux</w>
établ issement</w>
t ungen</w>
représent ants</w>
Beispi el</w>
un ser</w>
eil s</w>
in struc
da to</w>
adop tar</w>
fi é</w>
gen der</w>
z es</w>
a ver
al ways</w>
Umwel t
eb site</w>
susta inable</w>
prati ques</w>
tit ul
re forma</w>
errei chen</w>
s ätze</w>
curr ently</w>
ty -
könn ten</w>
ph ase</w>
S to
M E</w>
ex t
S oci
w ün
responsi ble</w>
indé pend
5 3</w>
S A
gem acht</w>
oc tob
Program a</w>
tro isi
deleg ación</w>
ch s</w>
mani f
su peri
struc ture</w>
Pun kt</w>
diff ici
pro xim
en registr
con junto</w>
ju lio</w>
comm iss
ier ungen</w>
schaf tlichen</w>
s ei</w>
W ahl
al les</w>
répon se</w>
acer ca</w>
ol l</w>
Fam ili
nu tz
ar d
pu edan</w>
effec ts</w>
7 ,
ré forme</w>
is ts</w>
concurr ence</w>
hin sichtlich</w>
W ieder
ob sta
consul tations</w>
celu i</w>
econom y</w>
S h
octob re</w>
Z entr
gen e</w>
voll ständi
8 .
organ ismos</w>
professi onn
E n</w>
W as
reduc ción</w>
ein igen</w>
ta d
deci di
An sicht</w>
enfer me
excell ent</w>
eff izi
E E
consoli d
Be wer
for ward</w>
program m</w>
représent ant</w>
c tim
in é
mar s</w>
diá logo</w>
terror ism</w>
Stellung nahme</w>
s ent
trabaj adores</w>
cré er</w>
Vereinig ten</w>
t op
ne a</w>
par ty</w>
all ow</w>
ab an</w>
polític o</w>
wür den</w>
gre ater</w>
hab l
a to</w>
pertin entes</w>
ein schließlich</w>
9 9</w>
8 5</w>
gouvern ements</w>
cumpli miento</w>
possi bilité</w>
fü l
es fer
z eh
er ing</w>
ne eded</w>
4 7</w>
valu e</w>
deleg ation</w>
un ver
y l
civi le</w>
g keiten</w>
l ista</w>
ac cid
aug ment
el li
a chen</w>
et wa</w>
DE S</w>
promo ver</w>
sub sidi
einzel nen</w>
ác ter</w>
Bu ch
esto y</w>
techn ology</w>
ic s</w>
aus zu
recei ved</w>
re fu
c ómo</w>
untersch ied
Mun dial</w>
cambi os</w>
car ácter</w>
vul ner
mo i</w>
tr ices</w>
enseign ement</w>
renfor cement</w>
un til</w>
má xim
effor t</w>
objec tive</w>
demo str
inclu ded</w>
k s
in dispens
au près</w>
statu s</w>
ist án</w>
plac ed</w>
ur ch</w>
nach hal
financi ère</w>
p .</w>
el ev
Bei trag</w>
Afghan istan</w>
ay ud
who le</w>
K omm
gesch lossen</w>
ä d
exist ing</w>
mu estr
en cial</w>
ví ctim
W oh
ins gesamt</w>
Geschäf ts
men tionn
b ish
Bos ni
en sion</w>
n äm
Ukra ine</w>
T ab
sub ven
deber ían</w>
mi ght</w>
septi embre</w>
Rech te</w>
hab ili
polític os</w>
ener o</w>
dé ci
essenti al</w>
alo g</w>
Ber eichen</w>
ma i</w>
cust om
näm lich</w>
arbeit ung</w>
étu des</w>
vi el
dev ant</w>
h au
rit eri
par mi</w>
qu eda</w>
seri ous</w>
c les</w>
on str
liber té</w>
Ac t</w>
ex prim
ol er
Ar z
éli min
recommend ations</w>
7 3</w>
Z oll
perman ent</w>
opportun ity</w>
Ir an</w>
Asun tos</w>
mand at</w>
ür k
8 8</w>
M A
administr ative</w>
fonc tion</w>
pu est
inici ativa</w>
Verein bar
0 5</w>
ist ère</w>
asi gn
teil t</w>
prác ticas</w>
f all</w>
ff enen</w>
Pré sid
po verty</w>
dy nam
Terr or
is sions</w>
Än derung</w>
o li
P a
it em</w>
vi elen</w>
Aussch uss</w>
wel come</w>
9 .
k o</w>
Empf ehl
pon e</w>
agre ed</w>
ís ticas</w>
esp aci
Au ff
Con go</w>
g os</w>
effec t</w>
nov embre</w>
An gaben</w>
pr en
ra dic
v as
an genommen</w>
ven es</w>
ih rem</w>
pe ut
Rei he</w>
tér min
invol ved</w>
amoun t</w>
than k</w>
î t</w>
ri en</w>
présent é</w>
m isión</w>
plo y
wor ks</w>
prot ég
pregun ta</w>
consum id
me -
w rit
ab lement</w>
beh andel
Pati enten</w>
amen dements</w>
st e
h app
ter mes</w>
elec tr
capaci té</w>
R ec
fre cu
in qui
oblig ation</w>
li g</w>
raz ón</w>
sch affen</w>
kon kre
al tung</w>
il ed</w>
fi cial</w>
n ungs
t n
promo te</w>
redu cir</w>
consigui ente</w>
tu bre</w>
vic times</w>
de dic
at oire</w>
� </w>
ges etz
activ ité</w>
collabor ation</w>
lors qu'</w>
E l
p .
K ö
oc asi
éx ito</w>
cu atro</w>
abs ence</w>
entrepr ise</w>
ó venes</w>
w eb</w>
rédu ire</w>
exp éri
simil ar</w>
oeu vre</w>
Un tern
oper aciones</w>
aug mentation</w>
distribu tion</w>
f est</w>
l en
ma si
regar ding</w>
deut lich</w>
sa che</w>
Kontr olle</w>
ex igen
notwendi g</w>
erh öh
consi der</w>
prov in
di go</w>
Ge or
Her z
sta y</w>
betreff enden</w>
an s
Drit t
P ra
a .
fre ed
gleichzei tig</w>
lo ok</w>
qua tre</w>
oth ers</w>
it self</w>
vé ase</w>
lä s
oc tubre</w>
au x
j ourn
ar me</w>
enqu ête</w>
refer encia</w>
be tra
a dici
ec en</w>
B eg
v ra
uni versi
o t
enci es</w>
mar zo</w>
rec or
verk ehr</w>
ver stär
Organiz ación</w>
I T</w>
Jun i</w>
présid ence</w>
si tes</w>
Geri chts
des crip
pur su
h of</w>
mili tary</w>
J uly</w>
Vertrag s
biet et</w>
ac cu
Au ßen
lib ér
le ben</w>
nombre uses</w>
G eb
f arm
requ est</w>
efic az</w>
inté ress
abaj o</w>
be ispi
p ho
concer n</w>
gre ich</w>
ensi ve</w>
tr op</w>
oport unidad</w>
wer t</w>
ple ase</w>
ör de</w>
cal cul
derni ères</w>
ei genen</w>
contac t</w>
í t
fund s</w>
contex te</w>
ari at</w>
c arr
pr em
bestimm te</w>
arr ang
érie ure</w>
st ei
cons ac
cin q</w>
prac tic
en er</w>
9 4</w>
op tim
con sequ
com pos
sing le</w>
administr ación</w>
le -
P .
rel ation</w>
Beh andlung</w>
rec ord
souh ai
z er
wle dge</w>
j óvenes</w>
Pri or
of rec
inici ativas</w>
A sia</w>
D ok
7 -
Str uktur
m ir
so f
centr es</w>
A cuerdo</w>
è ge</w>
Aus sprache</w>
j am
tä ts
gr ad
Erklär ung</w>
préc éd
deber á</w>
exécu tion</w>
no vi
actu elle</w>
lu ß</w>
invest ment</w>
k tions
internation aux</w>
us er</w>
w eg
20 13</w>
K ommission
t är
adol esc
capaci tés</w>
Per man
bo dy</w>
derni ère</w>
mê mes</w>
t é
di ri
CO N
aplic ar</w>
coordin ación</w>
ín im
st eu
ér ic
Menschen rechte</w>
pe ac
Aus tr
comp any</w>
c elle</w>
instrum entos</w>
sosteni ble</w>
s s</w>
cons ist
i tali
princip le</w>
6 -
p ast</w>
Sch w
e la</w>
hab ían</w>
port ant</w>
t ó</w>
objec tives</w>
tr ouv
candi dat
üc k</w>
Ma ß
Oc tober</w>
com ing</w>
com pon
prop ose</w>
m ínim
B ri
cin co</w>
integr ación</w>
usam men</w>
con jun
pê che</w>
auf ge
zuständi gen</w>
différ entes</w>
h ommes</w>
we ap
con st
cap it
dich a</w>
may o</w>
n immt</w>
best eh
Bür ger
N eu
cor rup
ir se</w>
olu ción</w>
D u
brau chen</w>
intégr ation</w>
ad en</w>
o x
examin er</w>
yo ung</w>
sur veill
preci os</w>
europé ennes</w>
i chts</w>
di pu
Dec lar
Organ is
or ie</w>
consider a</w>
consider ation</w>
K ri
iv al
g obiernos</w>
kl ar</w>
m o</w>
el la</w>
ier te</w>
8 ,
discus sions</w>
a is
ni vel
sam keit</w>
Bek ämpfung</w>
K li
estruc tura</w>
sex ual</w>
el as</w>
6 3</w>
ger ungen</w>
Bet eilig
fu era</w>
exclu si
explo itation</w>
novi embre</w>
appr ouv
ti ens</w>
h aus
Sch affung</w>
l é
vo tación</w>
meil le
folgen den</w>
fi ve</w>
gr ün
S itz
PNU D</w>
über sch
fir m
ré duction</w>
person a</w>
sanc tions</w>
tig ungs
P en
K oh
essenti el</w>
f ish
cre ate</w>
för dern</w>
practi ce</w>
H i
prati que</w>
EC U</w>
se kre
ak tu
P h
br u
ro g
dec isions</w>
in dem</w>
ent ing</w>
mic ro
hal t</w>
loc ation</w>
str uktur
re mar
gel ten</w>
wer de</w>
deut et</w>
financi era</w>
cl airement</w>
minu tes</w>
t est</w>
Mitgli eder</w>
CN .
per mit
au er</w>
o .</w>
proced ures</w>
a del
con cl
situ ations</w>
D A
á g
Ab stimmung</w>
I I
ag ue</w>
c k</w>
Rap porteur</w>
tor al</w>
pl ann
fü r
b are</w>
estudi os</w>
pro chen</w>
ur a</w>
C r
n a</w>
j ähr
Forsch ung</w>
em ment</w>
glau be</w>
equ ili
re f
carri ed</w>
or ité</w>
enfo que</w>
vor zu
o fici
communic ations</w>
In dia</w>
consecu encias</w>
str e
el las</w>
Au g
muni cip
gr é</w>
activ idad</w>
pré vention</w>
Ch ine</w>
mat éri
fest gelegt</w>
possi bili
c all</w>
i cial</w>
respon se</w>
ejerci cio</w>
a ise</w>
enc arg
an ge</w>
wel tw
form er</w>
Mar ch</w>
k einen</w>
inde pendi
presu puest
cu ad
y es</w>
tur al</w>
Ger many</w>
a th
esti me</w>
F i
conflic tos</w>
ap ply</w>
Verbrau cher</w>
uni ons</w>
á ci
tel les</w>
represent antes</w>
perform ance</w>
Her aus
conséqu ent</w>
ít ulo</w>
nivel es</w>
leg ung</w>
gu te</w>
industri a</w>
fol ge</w>
ti ert</w>
con vi
Kö ni
territ oire</w>
zeich net</w>
ac tes</w>
ge bo
al le
Cu ba</w>
we der</w>
M us
Mit teilung</w>
interes es</w>
vi gil
pue blo</w>
o ir</w>
au ton
en nung</w>
Wir k
li min
continu ed</w>
achi eve</w>
g estimm
prop i
enth ält</w>
ation n
ab e</w>
fr au
e as
S pi
ar bi
plu part</w>
financi ères</w>
desempe ñ
Re publik</w>
äch st</w>
as k</w>
d ort</w>
Handel s
vol l</w>
uni k
condi tion</w>
humanit arian</w>
tion ed</w>
e le</w>
vir tud</w>
é tés</w>
man tener</w>
Go vern
T H
requ is
as tr
constitu ye</w>
mis es</w>
K u
comm un</w>
L eg
mögli ch
ing ly</w>
ar ti
lus s
ätz en</w>
fourn ir</w>
cre di
M ay</w>
enmi enda</w>
démocrati que</w>
docum entos</w>
at a</w>
8 9</w>
intér êts</w>
utilis er</w>
prü fen</w>
anges ichts</w>
l ack</w>
in medi
Investi tionen</w>
cl aim
Commiss aire</w>
ent s
l ing</w>
i ti
orig inal</w>
E st
él arg
discrimin ación</w>
198 9</w>
Er weit
mo de
p u</w>
D r
exper im
sch ul
E conóm
r ates</w>
al to</w>
A t
envir on</w>
consul tation</w>
Kenn tnis</w>
Janu ary</w>
pa in</w>
h eb
Mi embr
bes ser</w>
z usammen</w>
lo w</w>
F A
comp li
S or
k us
P O
arbeit et</w>
richt ungen</w>
ab and
E T</w>
dr it
r ent</w>
tran j
N u
m '</w>
f oc
esp ère</w>
M ex
Umwel t</w>
Er fahr
qu ed
main tien</w>
rem plac
r endre</w>
pro fi
en ed</w>
cos as</w>
0 4</w>
8 6</w>
Ges etz
trou ver</w>
difficul t</w>
parten aires</w>
or en</w>
car acter
be deu
comb in
aj ou
fi j
stat ement</w>
consi dé
Reg elung</w>
Gl ob
re tir
Le ist
zun ächst</w>
vis it
gu en</w>
E A
sion s
utiliz ación</w>
nu cle
w issen
trava illeurs</w>
or as</w>
crim e</w>
re ach
dis par
con vention</w>
reg el
6 8</w>
tr op
9 ,
usi a</w>
suiv ant</w>
ma ins</w>
gro und</w>
d -
M A</w>
de t
re for
potenti al</w>
reg is
gu li
sec ré
entsprech end</w>
orig ine</w>
par ents</w>
hô tel</w>
qu in
exer c
bre ak
vari as</w>
näch sten</w>
enh eiten</w>
Vor aus
pes ar</w>
Fon do</w>
presenta do</w>
v u</w>
pouv ons</w>
ré fugi
stat t</w>
0 3</w>
anc o</w>
Auff assung</w>
si eht</w>
tra it</w>
confli t</w>
errei cht</w>
z ul
perman ente</w>
dic ta
gen au</w>
av ril</w>
cru cial</w>
H ouse</w>
h ér
l er
dr u
Ta g</w>
R A
produc t</w>
ob tenir</w>
clar o</w>
sh ar
f te</w>
extra ordin
ra ther</w>
gubernam entales</w>
con cili
segun da</w>
ie den</w>
S el
é re
transi tion</w>
refer red</w>
z ahl</w>
ju g
monit oring</w>
treff en</w>
R usia</w>
fundam entales</w>
am eri
disposi tion</w>
pré vo
t élé
Institu tionen</w>
f alls</w>
e z
commit ment</w>
an ischen</w>
Aug ust</w>
financi eros</w>
év olution</w>
tiv amente</w>
intern al</w>
ein ander</w>
Señ orías</w>
1 2.
ap s</w>
succes s
gegen wär
Grup pe</w>
n un
amen dement</w>
Ein führung</w>
ear ly</w>
de fici
Rah men
t ante</w>
se its</w>
ak zep
dé ten
Afr ican</w>
me isten</w>
Tr abajo</w>
ex tranj
E ast</w>
uni ties</w>
Verantwor tung</w>
confli ts</w>
ci pl
preu ve</w>
estable cimiento</w>
ac </w>
c elles</w>
pri cht</w>
tar d</w>
Jap an</w>
negoti ations</w>
an gl
gen s</w>
fin s</w>
minim um</w>
public s</w>
as es
ge bi
Wel t
et ings</w>
sec tores</w>
' t</w>
d an</w>
Demokrati e</w>
op s</w>
kno wn</w>
to ok</w>
gesam ten</w>
representa tive</w>
ur y</w>
Janu ar</w>
empres a</w>
igu al</w>
einfa ch</w>
exis ten</w>
man dato</w>
tom ar</w>
basi c</w>
Par tes</w>
k m</w>
merc ados</w>
behal f</w>
bu ena</w>
larg ement</w>
govern mental</w>
aj ust
experi encia</w>
e ci
dé cid
er fül
uk tur</w>
concern s</w>
surveill ance</w>
regi ons</w>
hab i
b our
Ver tr
cour t</w>
In nov
ün sti
blei ben</w>
al -
tig keiten</w>
S tra
streng th
chall eng
Per s
m ung</w>
stell er</w>
L o
he ures</w>
J o
aument ar</w>
T el
10 .
su it</w>
co her
plen amente</w>
princip les</w>
ens te</w>
co -
w n
spezi f
demand é</w>
S A</w>
gü l
coû ts</w>
ger ade</w>
Hum anos</w>
Po si
ver se</w>
dem onstr
f assen</w>
ih m</w>
T at
aprob ación</w>
H andel</w>
onn es</w>
gos lav
neces arias</w>
ma cht</w>
lic k</w>
tri bun
A gre
S k
re fle
ac tos</w>
fi e</w>
pr ice</w>
assess ment</w>
sozi ale</w>
acc ro
consomm ateurs</w>
Inform ation</w>
gewähr leisten</w>
adop ción</w>
l ung</w>
c en</w>
bed ingungen</w>
su fr
gr áfic
Aff airs</w>
der iv
vig or</w>
rais ons</w>
Proto k
Ver bind
re alidad</w>
Rein o</w>
ran ge</w>
conflic to</w>
compr eh
viol ations</w>
anc ed</w>
integr ation</w>
Ö ff
manten imiento</w>
ade qu
y m
Agr ar
pre fer
ni chts</w>
stat t
ch ed</w>
Ko ordin
aur ait</w>
on ces</w>
be deutet</w>
oc </w>
prior ity</w>
l s</w>
realiz ar</w>
6 4</w>
á tico</w>
20 11</w>
n ada</w>
cat ég
ter ed</w>
B re
c ô
Beihil fen</w>
pun tos</w>
W in
vor lieg
co de</w>
F u
bestimm ten</w>
w art
efic acia</w>
mati que</w>
zw eit
ê tes</w>
observ ations</w>
riteri en</w>
sel f-
T A</w>
schließ en</w>
omm et</w>
é l</w>
víctim as</w>
p ér
agr í
g ol
troisi ème</w>
Deb atte</w>
scho ol</w>
Ex per
Jah res</w>
av anz
R at
ho ffe</w>
funcion arios</w>
élabor ation</w>
te te</w>
k eits
competi tion</w>
Sta tu
répon dre</w>
ell eicht</w>
Lu ft
i -
Re form
bet eilig
le quel</w>
ri gen</w>
ev itar</w>
Mark t
Kin der</w>
els weise</w>
po wer
reg ular</w>
20 20</w>
provisi onal</w>
vi elleicht</w>
gef ähr
M ob
6 7</w>
w ob
Z ahl</w>
me et</w>
An aly
ab ril</w>
fin ally</w>
en fr
Inform ations
end ra</w>
present ed</w>
ó digo</w>
z en
ra in</w>
ag ed</w>
Zei traum</w>
gestimm t</w>
cr ito</w>
Ver wendung</w>
Econom ic</w>
führ t</w>
bal ance</w>
K l
for dern</w>
fac tur
ún ico</w>
e uses</w>
per mis</w>
tig er</w>
h and
conf ir
on i
work ers</w>
paragrap h
conclu siones</w>
ingr esos</w>
to ire</w>
N acional</w>
tem as</w>
Zeit punkt</w>
bur g</w>
Roy au
en ge</w>
An ti
sch lä
re fugi
établi r</w>
appli quer</w>
ob ach
so gar</w>
8 -
ch ac
li tt
star ía</w>
Pre mi
estable cido</w>
lo o
k tionen</w>
è le</w>
autor is
A .</w>
infrastruc ture</w>
guer re</w>
pro pr
beispi elsweise</w>
all oc
Rus sie</w>
Beschäf tigung</w>
ju st
star t</w>
Dis kus
her r
artí culos</w>
La w</w>
tatsäch lich</w>
S up
facili ta
gen ehmi
mal a
Abge ordn
ef s</w>
Wachst um</w>
jur is
ten den</w>
cle arly</w>
direc tiva</w>
Berichterstat ter</w>
Energi e
ec k
dan ken</w>
Amer ica</w>
col o</w>
a ï
lu t
h im</w>
introduc tion</w>
st elle</w>
ab ier
kre ich</w>
wei s</w>
e an</w>
pour raient</w>
pl ein
commiss aire</w>
gen d
spr ä
am éric
trä gt</w>
d am</w>
cumpli r</w>
guer ra</w>
fam ille</w>
ent ífic
7 1</w>
dr in
ris ques</w>
es ca
Land wirtschaft</w>
sor te</w>
sec teurs</w>
fo cus</w>
étu di
me etings</w>
Mi o.</w>
som eti
for eign</w>
qu ir
soci aux</w>
ü bri
dec isi
aur a</w>
i de</w>
men es</w>
e usement</w>
ta tive</w>
develop </w>
staat lichen</w>
vec es</w>
schaf t
7 2</w>
J oh
sch wieri
ten ue</w>
tecn ología</w>
enth alten</w>
For um</w>
k or
an y
norm al</w>
su stitu
Organiz ation</w>
esta bilidad</w>
P A</w>
di agno
s emble</w>
co st</w>
wen den</w>
Fran kreich</w>
compé t
commer cial</w>
Bem üh
Ministr o</w>
h ör
er zeu
N et
eben so</w>
Stu di
Verpflicht ungen</w>
exis tence</w>
E L
E ff
t â
applic able</w>
c ès</w>
asi s</w>
gl eichen</w>
tra ff
stand ard</w>
gu staría</w>
sch i
g obierno</w>
agre ements</w>
com pu
si cher</w>
br ing</w>
podr án</w>
si an</w>
rapi dement</w>
6 6</w>
dis cipl
w ords</w>
nam e</w>
m em
à -
p lic
Aussch uß</w>
hom e</w>
an e</w>
inter ior</w>
S ü
consen sus</w>
1 00
psy cho
vorges eh
pro vis
dar um</w>
high er</w>
Fri ed
oblig aciones</w>
st ep</w>
Dienst leistungen</w>
as es</w>
conta min
ch os
tu al</w>
gar ant
import ants</w>
pr ak
id amente</w>
Agen da</w>
Kol leg
enseign ements</w>
v eu
represent ante</w>
F R</w>
vou l
in os</w>
es pero</w>
Buch sta
An trag</w>
Gesund heits
pas o</w>
ro ad</w>
mo vi
re chts
än de</w>
er ship</w>
bel ow</w>
j </w>
accep table</w>
Ak tions
con stru
correspon d
O per
clas si
st o
E R</w>
fi ée</w>
Sin ne</w>
amend ments</w>
h ag
is to</w>
a pr
aff ir
Gesam t
técn ica</w>
ni veaux</w>
M y
financi ers</w>
mark ets</w>
fass ung</w>
S um
hay an</w>
preocup ación</w>
su mer</w>
par lam
present ar</w>
resul ta</w>
ai des</w>
gen den</w>
Über wach
Ges ellschaft</w>
Miembr os</w>
dr ück
pro pre</w>
im medi
kno wledge</w>
industri al</w>
tiv idad</w>
plein ement</w>
dem an
reuni ones</w>
dé p
facili ties</w>
qu ées</w>
collè gues</w>
criteri os</w>
Bevölk erung</w>
ver i
democr acia</w>
du da</w>
dé fici
res se</w>
abor d</w>
indispens able</w>
g ten</w>
décid é</w>
rap pel
Änder ungen</w>
Minister io</w>
tor y</w>
k ri
un abhängi
si l
en io</w>
è de</w>
r us
ver tu</w>
u le</w>
d é</w>
durch geführt</w>
p ic
sur tout</w>
address ed</w>
Möglich keiten</w>
présent ant</w>
P S</w>
Par tei
fi k
quel que</w>
setz ungen</w>
rel ating</w>
zeich nung</w>
comple te</w>
ent onces</w>
sufici ente</w>
je de</w>
, 000</w>
elec ciones</w>
limit ed</w>
re main</w>
per met</w>
in ge</w>
prü ft</w>
throu gh
verbesser n</w>
preven ción</w>
et ary</w>
sch rif
di s</w>
mon ey</w>
ON G</w>
justi cia</w>
démocrati e</w>
ur gence</w>
tri bunal</w>
en ni
Arbeits pl
8 2</w>
as se</w>
Gesund heit</w>
ver antwor
Sou th</w>
tr o</w>
difíci l</w>
inde ed</w>
form as</w>
Sch l
ré alisation</w>
dé but</w>
s ag
nu tri
amélior ation</w>
id ence</w>
ë l</w>
suff ici
D eleg
sp ace</w>
S om
m entos</w>
ay er</w>
redu ce</w>
e ta
Pri v
concep t</w>
kr imin
G ri
F und</w>
de al</w>
in -
str ic
disposi ción</w>
neces i
Gl eich
prov ision</w>
Mr s</w>
0 6</w>
B au
entra î
s ac
ge ändert</w>
schein t</w>
rei chen</w>
Gro ß
W eb</w>
Bo ard</w>
weit eren</w>
reg re
s ett
stu dies</w>
En gl
st ep
recon struc
s et
ab lemente</w>
é di
or al</w>
ab ly</w>
str ong</w>
c os</w>
sta bilité</w>
is ches</w>
g ungs
S -
sch utz
T i
b s</w>
Ergeb nis</w>
v </w>
F E
V I</w>
t ons</w>
O n
L ond
hil fe</w>
mer n</w>
com isión</w>
fisc al</w>
réfugi és</w>
tiv ité</w>
popul ations</w>
ca ta
pal estini
ad ress
beg inn
dom in
adop ter</w>
maxim um</w>
ulta des</w>
du s</w>
Antwor t</w>
D -
par ts</w>
O k
aff irm
off ice</w>
zun ehmen</w>
produc to</w>
humani taire</w>
e ad</w>
Rus s
lich ung</w>
c argo</w>
di enst
asun tos</w>
ver ständ
de masi
maj orité</w>
dis minu
ke ep
disponi ble</w>
esca la</w>
app el</w>
colabor ación</w>
crit ères</w>
Tag ung</w>
ad hésion</w>
iss ements</w>
relativ o</w>
activ ity</w>
ten ido</w>
dé pu
Memb res</w>
Kr ise</w>
expres sed</w>
Entschließ ung</w>
no ted</w>
h aut</w>
re ported</w>
se urs</w>
Auf gabe</w>
S eite</w>
sicher heit</w>
B ra
direc trices</w>
cu ales</w>
inter ests</w>
ex ig
d ated</w>
l ado</w>
ür z
pal estin
con forme</w>
through out</w>
establish ment</w>
I T
Al l
d .</w>
bit te</w>
encour age</w>
p tion</w>
c ent
Schrit t</w>
sch w
statu t</w>
eni gen</w>
ta us
subst anti
bo dies</w>
ré férence</w>
Industri e</w>
pro cur
No twendi
rel ation
prov iding</w>
veil ler</w>
pol lu
seu le</w>
agre e</w>
Al lem
to ur</w>
ser án</w>
ver absch
pu is
Aus druck</w>
oper ations</w>
ges ellschaft</w>
Erweit erung</w>
Finanz ierung</w>
cho se</w>
superi or</w>
sh are</w>
id s</w>
Col om
T ürk
li cht</w>
Ju li</w>
ech en
Verbrau cher
er seits</w>
freed om</w>
ber eit</w>
innov ation</w>
dé s</w>
év iter</w>
peut -être</w>
ré unions</w>
expéri ence</w>
Aus tri
m il
financi er</w>
s how</w>
au tant</w>
4 00</w>
elem entos</w>
emp ê
a th</w>
presenta ción</w>
si ehe</w>
direc tives</w>
fund ing</w>
offr e</w>
hom bres</w>
ander er</w>
ci v
re ally</w>
aliz ation</w>
P ap
Agre ement</w>
présent er</w>
benef it</w>
en señ
hä tte</w>
el ten</w>
prev ent</w>
b es</w>
syst em
arg um
territori o</w>
continu ación</w>
representa tives</w>
c un
P R
qu and</w>
statisti ques</w>
fig ure</w>
mecan ismos</w>
min d
ci onales</w>
seu l</w>
Uni do</w>
table au</w>
confér ence</w>
imp ul
ca si</w>
inter pre
ori gen</w>
Re form</w>
abili dad</w>
princip aux</w>
Ber at
direc tly</w>
centr o</w>
Änderungsan träge</w>
7 6</w>
In don
re clam
h aup
ér ica</w>
propos é</w>
mani fest
d or
aliz ar</w>
Kon fli
exp an
at tribu
promo ción</w>
sub stances</w>
órgan os</w>
ger ung</w>
D ro
li ving</w>
económ icos</w>
fe lici
le ad</w>
attein dre</w>
s einem</w>
eri es</w>
K rank
alcanz ar</w>
An nex
ho urs</w>
charg é</w>
le b
M at
mor tali
be züglich</w>
er ait</w>
apoy ar</w>
propr es</w>
Wettbewer b</w>
3 .</w>
dang er
ab zu
N ieder
Forsch ungs
8 1</w>
mo tiv
k g</w>
K an
pur pose</w>
ci entífic
Par is</w>
re cours</w>
z ation</w>
gli chen</w>
diffici le</w>
H IV</w>
jam ais</w>
tionn el</w>
co l</w>
solici tud</w>
Uni </w>
bei tragen</w>
z eit
im médi
is mes</w>
litt le</w>
par le</w>
extr ê
sta aten</w>
conséqu ences</w>
Str af
fol gen</w>
s po
des ign</w>
im os</w>
económ icas</w>
deci ded</w>
organ es</w>
- term</w>
Türk ei</w>
communau taires</w>
sou tenir</w>
di gen</w>
interven ción</w>
pass é</w>
s w
öffent liche</w>
se en</w>
peri o
ei den</w>
I M
pro ven
fic ations</w>
part ners</w>
pu bl
aprob ado</w>
mo dern</w>
reg ulation</w>
peup le</w>
gener ales</w>
suc cès</w>
gemein sam</w>
re almente</w>
gr af
ta x</w>
ou l
investiss ements</w>
g te</w>
Haup t
cons iste</w>
k enn
ayud ar</w>
fol gerungen</w>
erforder lichen</w>
Erzeu gnisse</w>
Fischer ei
Wor king</w>
qu és</w>
str op
gar es</w>
ur ing</w>
an ual</w>
a quel
tr ad
de tec
S ier
exper tos</w>
des crib
dur ée</w>
D e</w>
Vol ks
le h
dad urch</w>
equi po</w>
-- --
c anc
reas on</w>
glob ale</w>
civi les</w>
und s</w>
weap ons</w>
mo sp
oc c
g g
ed ing</w>
W eit
val ores</w>
esta d
r ob
p. m.</w>
spe ak
ah n
ter ran
tr adu
p ág
R um
si r
AI DS</w>
sta ge</w>
fün f</w>
Pr im
gehör t</w>
tr af
sta tes</w>
8 4</w>
es encial</w>
in tel
we is
Qu alität</w>
indi qué</w>
S O
es tic</w>
g yp
A B
en ch</w>
trou ve</w>
sig keit</w>
än dern</w>
ei ther</w>
expec ted</w>
al co
í o</w>
8 3</w>
dese o</w>
ta ined</w>
therap y</w>
d om</w>
crim es</w>
Notwendi gkeit</w>
b em
wob ei</w>
oc cid
Partei en</w>
associ ation</w>
a way</w>
fi f
ev ents</w>
phy si
Organis ationen</w>
Integr ation</w>
onn en</w>
régi onal</w>
cir cun
Bemüh ungen</w>
hö ch
metho ds</w>
compreh ensive</w>
sour cen</w>
previ ous</w>
efec tu
M as
su ministr
k ind</w>
Ch air
supplémen taires</w>
trä gen</w>
gen u
Ar gent
h af
F I
Palestini an</w>
ouver ture</w>
especi ales</w>
at ures</w>
Allem agne</w>
neces aria</w>
compl é
pi de</w>
déclar é</w>
v uel
direc ción</w>
Sier ra</w>
élec tions</w>
ob wohl</w>
mob il
sch wer
cher weise</w>
en as</w>
bi ens</w>
am entos</w>
berücksich tigt</w>
respec ta</w>
f allen</w>
Fäl len</w>
Conven io</w>
ren ov
them selves</w>
r äf
sem in
structur es</w>
ac u
tu des</w>
L iste</w>
wich tigen</w>
h äu
prés entation</w>
Isra ël</w>
sub ra
S tim
ru le</w>
autor ité</w>
si ca</w>
prop os</w>
sta tis
rel atif</w>
Hö he</w>
Aus fu
challeng es</w>
7 4</w>
lon ger</w>
fort un
ag encies</w>
direc tement</w>
soci étés</w>
7 8</w>
observ aciones</w>
Mitgli ed</w>
Er fol
langu age</w>
d ol
H C
angem ess
é tro
ampli ación</w>
je den</w>
prev isto</w>
et tes</w>
annu al</w>
to x
quer emos</w>
L eben</w>
de ten</w>
v ille</w>
er ed</w>
si tz</w>
198 8</w>
rur ales</w>
gén ero</w>
Me tho
sup ported</w>
fun ciones</w>
en vi
ré guli
vin cul
funcion amiento</w>
au t
G A
inversi ón</w>
G ol
vor gelegt</w>
C i
Änderungsan trag</w>
vorgesch lag
par l
crimin al</w>
As soci
in gl
Grün den</w>
atori o</w>
je des</w>
C .</w>
chang ement</w>
best ehen</w>
permet tant</w>
zieh ung</w>
7 9</w>
centr ale</w>
lin es</w>
Mär z</w>
ent -
mécan ismes</w>
emp h
podr ían</w>
Am érique</w>
Al em
relacion adas</w>
20 12</w>
ri </w>
ayu das</w>
com enz
sof tware</w>
qu ée</w>
prueb a</w>
chi ffr
is os</w>
Reg ierungen</w>
prévo it</w>
mo del</w>
Gr enz
difficul tés</w>
la un
co les</w>
si guen</w>
E ME
sor gen</w>
perspec tive</w>
bish er</w>
üss el</w>
et a</w>
rem os</w>
cier to</w>
volon té</w>
N G
t ance</w>
z um
part ner</w>
fuerz as</w>
go ods</w>
publi ques</w>
pro pri
nuclé aires</w>
ob tener</w>
ter ren
sch utz</w>
form s</w>
im ent</w>
spéci fiques</w>
Entschei dungen</w>
dipu tados</w>
S w
érie ures</w>
ih n</w>
Proje kte</w>
So li
at ég
f év
im pres
St är
ein heit
juici o</w>
Kommission s
minis ter</w>
comunit aria</w>
fi g</w>
équ ili
instrum ento</w>
connec tion</w>
Amer ican</w>
bas es</w>
sic al</w>
investiss ement</w>
distin c
ä s
engag ements</w>
cal end
verwen det</w>
or g</w>
j as</w>
dem ander</w>
institu tion</w>
éta ires</w>
wichtig sten</w>
Aus gaben</w>
vi tal</w>
ier s</w>
achiev ed</w>
anti -
men tioned</w>
Am ster
cl in
Mon aten</w>
Stand punkt</w>
segu imiento</w>
favor able</w>
di gung</w>
Présid ente</w>
re mains</w>
Re present
examin ar</w>
b at
b illi
ex ige</w>
se ktor</w>
ofre ce</w>
neces arios</w>
nucle ares</w>
gen de</w>
gab </w>
¡ </w>
recu per
Ge wal
á re
fa its</w>
mo tivo</w>
h ora</w>
r aci
b ack
jus te</w>
consumid ores</w>
í tim
best ä
Royau me-
lo k
plan es</w>
ang eh
ent an</w>
rése au</w>
ber u
fév rier</w>
el ek
li ve</w>
G eleg
Bil dung</w>
tendr á</w>
part ement</w>
protég er</w>
War en</w>
régi onales</w>
pal abr
ik a</w>
fonctionn ement</w>
ism s</w>
Direc tor</w>
SI DA</w>
Br us
consider able</w>
some thing</w>
Re presenta
increas ing</w>
del ines</w>
Beihil fe</w>
Sch en
D aten
af irm
tel y</w>
Royaume- Uni</w>
shi ps</w>
organiz ation</w>
parta mento</w>
w ell
refu ge
H ol
preci o</w>
Pak istan</w>
Arz nei
stim men</w>
b ir
po ss
de p
Fr ench</w>
ta kes</w>
prepar ed</w>
ther n</w>
ap porter</w>
O R</w>
establ ish</w>
H y
Di alog</w>
relacion ados</w>
geführ ten</w>
off icial</w>
Min istère</w>
vorges ehen</w>
souhai te</w>
et c.</w>
Abgeordn eten</w>
Tag es
L I
fac tor</w>
est en</w>
pa y</w>
remerci er</w>
C O</w>
refer ence</w>
pu estas</w>
blei bt</w>
án dose</w>
mé todos</w>
F le
ma ch
lang fris
con tent</w>
í gen
maj ority</w>
an terior</w>
pour suivre</w>
anta ges</w>
realiz ado</w>
á m
prü fung</w>
l in</w>
approv ed</w>
applic ations</w>
on d</w>
grund le
Ministr y</w>
geh alten</w>
reduc tion</w>
E sp
palabr as</w>
canti dad</w>
oc er</w>
per m
leg t</w>
sam m
ten iendo</w>
brit anni
arr ê
D I</w>
geh end</w>
hac er
adop tado</w>
sei s</w>
in jec
W es
net work</w>
anz ös
........ ........
facili tar</w>
j ahr</w>
geleg ten</w>
dum ping</w>
M er
fic ado</w>
succes s</w>
M es
tic amente</w>
fon do</w>
K raft</w>
manif esta
public ation</w>
bek annt</w>
post es</w>
tr ac
app el
S onder
conten ido</w>
us tr
im plement</w>
F ak
P C</w>
s .</w>
angl ais</w>
f en
keep ing</w>
An streng
gn is</w>
fuer za</w>
Ch am
be ein
Kon ferenz</w>
comerci ales</w>
pl ut
Ac tion</w>
U N</w>
tra ite</w>
Ma i</w>
a der</w>
ier e</w>
a prov
6 9</w>
il la</w>
mo del
á mar
añ adi
dis pose</w>
arm ement</w>
ali ment
nutz en</w>
grup pe</w>
Ger man</w>
continu er</w>
wh er
Beri chts</w>
ta u
No .</w>
enjo y</w>
isra el
ci té</w>
em pr
Vertrag s</w>
over all</w>
n u</w>
û t</w>
sh </w>
beh avi
es h</w>
T e
Ch il
utiliz ar</w>
caus a</w>
ven ta
ges ta
Tat sache</w>
end ing</w>
S ol
A ir
fav our</w>
grat u
figur a</w>
Herr en</w>
dem andes</w>
u les</w>
permi te</w>
am ents</w>
b ou
B ud
dis chen</w>
deber án</w>
comunit ario</w>
déla i</w>
per ten
Untern ehmen
ar an</w>
ch api
un tern
particip er</w>
pro fun
An forderungen</w>
democr acy</w>
terior mente</w>
si ble</w>
conséqu ence</w>
ad hesión</w>
S ach
h atten</w>
Gemein samen</w>
confi anza</w>
posi tions</w>
design ed</w>
EG -
w ing</w>
Kon zep
é change</w>
F ühr
eb los</w>
oport unidades</w>
th ings</w>
Prü fung</w>
O u
a o
er wäh
andl ungs
M ac
do sis</w>
ma kes</w>
an no
est ing</w>
si l</w>
dis puesto</w>
équi p
influ ence</w>
dom estic</w>
s aber</w>
a con
comp tes</w>
a proxim
cl ass
S an</w>
electr ón
Sch luss
ermögli chen</w>
centr os</w>
mat ters</w>
tou ch
rec ep
hab la</w>
B ro
ta it</w>
m ad
par all
alg una</w>
on line</w>
re -
commit ted</w>
erst er</w>
preven tion</w>
N etz
si ti
dem ocratic</w>
F ir
osi s</w>
cuad ro</w>
auton om
0 8</w>
qui te</w>
Ok tober</w>
ad s</w>
í es</w>
fais ant</w>
Fr ancia</w>
un ic
secré tariat</w>
déf ense</w>
sou mis</w>
mind estens</w>
r at</w>
Se k
din ero</w>
opport unities</w>
S am
llev ar</w>
é tique</w>
ge tro
prop ia</w>
respe to</w>
requis itos</w>
b in
V en
établi </w>
Dem ocr
cro is</w>
ver dad
endi do</w>
L iss
let ter</w>
prec iso</w>
ur i
equip ment</w>
proli fer
ar k</w>
he ure</w>
é ste</w>
g sten</w>
dific ultades</w>
Verk ehrs
0 9</w>
t ants</w>
don ne</w>
fin es</w>
Geor gi
pr ices</w>
determin ar</w>
pr ud
prév ues</w>
zus etzen</w>
recom man
Bar cel
v ise</w>
clar amente</w>
vé h
con c
OM C</w>
ó dic
B ef
sec ción</w>
h öh
ver hin
m id
O S
ex change</w>
step s</w>
ein ig
contribu er</w>
im ag
pér di
verk ehr
Liss ab
ar res
Pal est
chang ements</w>
di minu
prior ité</w>
ab ra</w>
cont ing
men ores</w>
ati que</w>
ebr ero</w>
A ut
Minis tre</w>
x -
fin ales</w>
An nahme</w>
tem pl
consul ta
possibili tés</w>
betro ffenen</w>
ide as</w>
eg as</w>
ver ur
enta ción</w>
st y
wä l
a er
Vertr eter</w>
parlam ent
pers ön
rec ev
un di</w>
benef its</w>
on al
we den</w>
suiv ants</w>
prior ités</w>
cli mate</w>
conta ined</w>
äh n
Alem ania</w>
op tion</w>
neces it
co ver</w>
Justi ce</w>
con dam
- up</w>
olog ías</w>
D o
tar se</w>
mo str
k il
inter ne</w>
L os</w>
l ö
con fron
Add .
restaur ant</w>
agr a
dou ble</w>
Jun ta</w>
pi te</w>
sign ed</w>
caract ère</w>
stan den</w>
prop io</w>
En t
arrang ements</w>
ni ed
financ ing</w>
p a</w>
Ho ch
recei ve</w>
ecu tive</w>
Su d</w>
proteg er</w>
com plement
implem ented</w>
con den
auf zu
si to</w>
B un
streng then</w>
ag ir</w>
Bel ar
emplo is</w>
N L</w>
métho des</w>
trans ports</w>
en suite</w>
som it</w>
Trans par
Zi el
refugi ados</w>
aliz ed</w>
f ebrero</w>
appli ed</w>
an moins</w>
0 7</w>
li s</w>
le ft</w>
Reg eln</w>
asegur ar</w>
fe der
F ern
migr ants</w>
adequ ate</w>
posi bili
zu dem</w>
mess age</w>
d û
Inter essen</w>
lleg ar</w>
el ess</w>
reit er
Untersu chung</w>
ein ge
cab e</w>
né anmoins</w>
zei gen</w>
tar es</w>
gouvernem entales</w>
b order</w>
c é</w>
Par te</w>
T E</w>
let tre</w>
cep ti
v oc
establ ece</w>
confi ance</w>
spéci alis
institu tion
so on</w>
übersch reit
comple x
pag ne</w>
inf l
pedi r</w>
P lat
progr es
bl oc
é tica</w>
autor idad</w>
le di
es ia</w>
schnit t</w>
Kolleg innen</w>
Richt ung</w>
iv il
auth ority</w>
distin tos</w>
out side</w>
ar in</w>
initi al</w>
1 50</w>
reas ons</w>
véh ic
qui enes</w>
stud ents</w>
be au
progr esos</w>
hu bi
op pos
év entu
priv é</w>
ra ch
produ ce</w>
er ont</w>
po ses</w>
verein bar
ter t</w>
affec ted</w>
E tats</w>
financi eras</w>
an z</w>
Au tor
j ün
P IB</w>
un anim
re turn</w>
ti pos</w>
ger ech
war um</w>
e den</w>
K riterien</w>
Öff ent
mehr ere</w>
hal te</w>
fahr ens</w>
fronti ères</w>
Program ms</w>
e ks</w>
evalu ation</w>
envir onn
tä r</w>
ag ents</w>
an ía</w>
J am
veh ic
an erk
der zei
entr ée</w>
tr et
Z ivil
rev isión</w>
gan gs
contr ol
expres sion</w>
est é</w>
em o
estr atég
deb ates</w>
geri chtet</w>
do wn
wir ken</w>
Amster dam</w>
V al
ar lo</w>
destruc tion</w>
anim ales</w>
char acter
n s</w>
è mement</w>
Anstreng ungen</w>
at titu
pu eblos</w>
An pass
Span ien</w>
so fern</w>
satisfac tion</w>
financi ero</w>
allgem einen</w>
war ten</w>
ampli a</w>
últim a</w>
K ing
B ru
In fr
Buchsta be</w>
mu si
dur ant</w>
plut ôt</w>
ter cer</w>
prév u</w>
terren o</w>
han dic
Turqu ía</w>
vis it</w>
entsprech enden</w>
li és</w>
Div ision</w>
li en</w>
k ultur
ir án</w>
Ak tiv
Soli dar
den ke</w>
e w
necesi tamos</w>
insta ur
satisfac ción</w>
ber ech
trans por
d au
practic es</w>
sh ort</w>
suiv antes</w>
er cial</w>
a war
Gri echen
el er
se z</w>
at ér
B as
in ser
ei en</w>
trit ts
ante -
är en</w>
pres s</w>
Itali en</w>
europä ischer</w>
comm ittee</w>
Ab kommens</w>
esper a</w>
ul ti
D at
contribu ción</w>
ou th</w>
polic ía</w>
de liber
lei der</w>
comprom isos</w>
è ce</w>
res pet
en k
Y u
U R
O C
schließ end</w>
divers os</w>
permi tir
en able</w>
en for
r enseignements</w>
consul tas</w>
associ ated</w>
budg étaire</w>
t es
b st
sol chen</w>
com i
raz ones</w>
fran ç
valu es</w>
acro ss</w>
lat er</w>
la ws</w>
neu er</w>
fur ther
cl ari
peri ódic
ré us
fi l</w>
manu factur
ri chten</w>
H am
re présente</w>
capaci tación</w>
de cre
gri ff</w>
rec ently</w>
cre ated</w>
ch o</w>
ex cel
Gi pf
is ing</w>
ci fr
Represent ante</w>
av es</w>
so ins</w>
De partment</w>
contribu te</w>
famili a</w>
Vor sitz
tra in</w>
sim o</w>
or g
eb enen</w>
fu sión</w>
cu id
s ent</w>
con ces
ob vi
v acc
rapi de</w>
te ach
meille ure</w>
mode lo</w>
actu ales</w>
ític a</w>
Mehr heit</w>
vo ire</w>
T el</w>
ver h
Binnen markt</w>
D amen</w>
mit gli
S ti
pr end</w>
He alth</w>
Ver trau
a ison</w>
infr a
I hr
Produ kte</w>
comp lic
ei gent
Aspe kte</w>
at tr
6 00</w>
des pite</w>
spr uch</w>
Is lam
Köni greich</w>
P lan
Memb ers</w>
a propi
Ur spr
caus es</w>
ún ica</w>
agricul tural</w>
tis ch</w>
Qu ali
ell ing</w>
ari es</w>
car ta</w>
Flu g
rel atifs</w>
de z</w>
inclu des</w>
compé ti
prohi bi
ten ces</w>
aff aire</w>
mittel t</w>
Der echo</w>
mo v
hist ory</w>
ver öffent
198 7</w>
Sch utz
t antes</w>
w id
Al ban
wen ig</w>
ko sten</w>
términ os</w>
Febru ary</w>
l anz
ta sa</w>
Nutz ung</w>
th i
mat ern
je dem</w>
in n</w>
Kli ma
L andes</w>
consum o</w>
tim s</w>
ass er</w>
aprov ech
k i</w>
regel mäß
< </w>
at z
op enh
es pr
zw eiten</w>
g am
vorgeseh enen</w>
re main
élec tron
tom a</w>
mar g
L ie
K ern
dés armement</w>
félici te</w>
M än
ali </w>
co ordonn
est u
stoff e</w>
lem en</w>
concep to</w>
bien es</w>
a éri
i on</w>
independ ent</w>
particip antes</w>
tra ités</w>
techn ischen</w>
prior idades</w>
Besch luss</w>
construc ción</w>
rei fen</w>
annex </w>
juridi ques</w>
prov oc
N um
pai d</w>
ütz t</w>
direc tamente</w>
compé tences</w>
cu ar
su stan
er re
as um
En g
vo irs</w>
ev ent</w>
g ir
dis k
es crito</w>
sta bility</w>
constitu ent</w>
Reg el
verabsch ie
le yes</w>
ver pflicht
por tu
ali dades</w>
con sid
u dad</w>
in sul
T V</w>
peque ñas</w>
pe tr
K am
ben ö
hel fen</w>
P i
ámar a</w>
gen cy</w>
quier a</w>
h ing
gn issen</w>
Mad am</w>
Associ ation</w>
pu isse</w>
prohi b
geg angen</w>
moder n
séri e</w>
vi de
S en
spéci ale</w>
sch le
zeich n
General sekre
Secretar ía</w>
erneu t</w>
al ong</w>
P T</w>
esta ba</w>
gr ado</w>
poin ted</w>
id ée</w>
réc emment</w>
exist entes</w>
facili ter</w>
re per
D el
fun ktion
protec t</w>
divers as</w>
Am ts
lab our</w>
t oler
Erfol g</w>
ke ep</w>
ta g</w>
Geleg enheit</w>
li er</w>
cover ed</w>
ch en
Z </w>
E L</w>
ingl és</w>
H aus</w>
á ticos</w>
arm s</w>
änder ungen</w>
Constitu ción</w>
wi der
á ne
europ eas</w>
ré v
G ed
eg u
altern ative</w>
contr ario</w>
ameri kan
besch rän
iz a</w>
l um
b ul
su pr
cht ung</w>
région ale</w>
trans form
gel eit
Am érica</w>
Arbeit nehmer</w>
ill s</w>
liz ación</w>
ci- après</w>
p ac
demasi ado</w>
ten d</w>
fonc tions</w>
v öl
ill ed</w>
C R
in come</w>
requ ire</w>
al most</w>
lan ge</w>
transpar ence</w>
Feder al</w>
di ó</w>
públic os</w>
li gh
ries gos</w>
c au
olog ischen</w>
grup pen</w>
distribu ción</w>
evid ence</w>
gri ffen</w>
agric ole</w>
Es paña</w>
opér ationn
tu vo</w>
v ill
sus cepti
Annex </w>
zw eite</w>
E igen
techn ologie</w>
aus reich
pr est
for table</w>
li k
gent lemen</w>
end gül
partici par</w>
espaci o</w>
signific a</w>
los s</w>
inter net</w>
val eurs</w>
Proto colo</w>
Artik els</w>
H on
fac tors</w>
ologi que</w>
show n</w>
Bewer tung</w>
adop tée</w>
it ement</w>
é st
b ab
ul tur</w>
tir er</w>
an ten</w>
P sy
Sch wieri
élev é</w>
pal abra</w>
con tient</w>
ü b
d or</w>
Pro tec
trabaj os</w>
l ist
invi te</w>
d ent</w>
Gen ehmi
h ous
ed ades</w>
march a</w>
z ado</w>
environn em
fé dér
prop one</w>
bar keit</w>
gewi esen</w>
fr anzös
ma je
disk uti
rei ben</w>
tercer os</w>
Tim or</w>
cro ss
ámb itos</w>
di vers</w>
Wettbewerbs fähigkeit</w>
gi gen</w>
r ä
zeh n</w>
Best and
tot almente</w>
s os</w>
rei che</w>
l ac
Dec isión</w>
CO M
vo ted</w>
konn te</w>
tionn elle</w>
elabor ación</w>
m eines</w>
criteri a</w>
ad ora</w>
dé plac
ledi glich</w>
St elle</w>
ati r</w>
sim ply</w>
oper ación</w>
s ali
é sta</w>
Er n
mecan ismo</w>
entw ickl
ihr es</w>
further more</w>
é crit</w>
z äh
Po lic
arri v
la dies</w>
k ts</w>
conta ins</w>
centa ge</w>
dos si
Austri a</w>
e over</w>
G aza</w>
ou vel
tar á</w>
b ra
kl ang</w>
res pal
cho ix</w>
tro tz</w>
ign or
equ al</w>
im migration</w>
S eiten</w>
medic al</w>
ein gesch
A D
sch t</w>
wi esen</w>
C -
olog ische</w>
A K
é p
anim al</w>
ver gan
m ac
min d</w>
Verwal tung</w>
mej ora</w>
zu führen</w>
b as</w>
chac un</w>
fi ght</w>
im age</w>
lí nea</w>
f eh
cir cum
staat liche</w>
par venir</w>
fem me</w>
@ </w>
may ores</w>
vic tims</w>
esp ace</w>
p p
dépu tés</w>
prior idad</w>
exigen ces</w>
Ser vici
C y
proper ty</w>
li br
Ó N</w>
am ment</w>
eg e</w>
Jah res
ord en
Res olution</w>
te am</w>
suffici ent</w>
he art</w>
198 6</w>
hos pi
ide al</w>
uti le</w>
4 .</w>
requ ested</w>
mécan isme</w>
deci de</w>
fa ir</w>
King dom</w>
ges ell
Luxemb ur
aim ed</w>
un mittel
je wei
eth n
steh enden</w>
S pain</w>
et es</w>
j an</w>
espr it</w>
Rus sia</w>
h under
lie fer
vorlieg enden</w>
C um
mor eover</w>
fondam entaux</w>
ach ten</w>
co la</w>
CO M</w>
cli ents</w>
ju dg
dich as</w>
der ar
por té</w>
de uti
Leit linien</w>
E ini
An sch
jurídic o</w>
E A</w>
den ken</w>
Con sul
- L
b au
transpar encia</w>
reconoci miento</w>
le z</w>
G as
établ issements</w>
comun idades</w>
gi tal</w>
inversi ones</w>
ch ô
. org</w>
8 00</w>
si da</w>
ter in</w>
forder ung</w>
Empfehl ungen</w>
fr ied
emb l
con templ
dise ase</w>
N A
ouvr ir</w>
b ass
ü st
mar k</w>
bu s</w>
itä ts
pes ca</w>
r er</w>
lo is</w>
success ful</w>
ob s</w>
to tali
s lo
sim ul
respec ter</w>
str i
Präsid enten</w>
par ole</w>
re ach</w>
consider ando</w>
om e
T it
l ing
Turqu ie</w>
chapi tre</w>
ent lich</w>
a ére
reç u</w>
declar aciones</w>
er inner
W ahr
m als</w>
nuclé aire</w>
un il
fonctionn aires</w>
TI ON</w>
prueb as</w>
Verk ehr</w>
aspec t</w>
who se</w>
Angeleg enheiten</w>
PP E</w>
è rent</w>
region alen</w>
abord ar</w>
m y
An erk
chan dis
br ing
N atur
dimen sion</w>
b o</w>
th é
c ali
B anco</w>
beri cht</w>
super vis
E F
1 1.
oblig ación</w>
famili es</w>
heur eusement</w>
kur z
él ément</w>
nun ca</w>
soulign er</w>
oc tro
préc is
r é</w>
ho ch
ún icamente</w>
presid ente</w>
T O
De partamento</w>
R au
ta g
H el
contribu ir</w>
utilis é</w>
professi onal</w>
li dad</w>
en ough</w>
li ées</w>
parten ariat</w>
inclu ye</w>
f í
Ban que</w>
s é</w>
encourag er</w>
pres encia</w>
M ind
in migr
gr os
an st
qui en</w>
recommen ded</w>
J ourn
o cu
res sor
fac tores</w>
volun tad</w>
pris on
leist et</w>
tradi tional</w>
enseñ anza</w>
r ah
besch lossen</w>
estructur as</w>
n ever</w>
g ing</w>
Yu goslav
E .</w>
li ge</w>
conv ain
ag os
we ek</w>
mö chten</w>
R ou
cre ation</w>
Rech nung</w>
considér ant</w>
T or
An satz</w>
diver ses</w>
posi bles</w>
e be</w>
les quels</w>
serv er</w>
ph arm
ten ga</w>
Ein klang</w>
e ch</w>
behandel t</w>
accu eil
y ó</w>
at mosp
asoci ación</w>
fr anc
t em</w>
man que</w>
port ée</w>
cep tion</w>
Me dio</w>
. 000</w>
et -
reg ular
prim ary</w>
D ef
res truc
ao ût</w>
reglam ento</w>
N ig
lan gen</w>
Th emen</w>
frei en</w>
wei ß</w>
ab ar
Representa tive</w>
én erg
o ft</w>
sor gung</w>
vol ume</w>
obsta cles</w>
erzi elt</w>
in cen
E s</w>
M c
present a</w>
ger ä
Justi cia</w>
tar ía</w>
D im
den omin
arbi tr
regul ations</w>
Beschäf tigungs
M ol
con seguir</w>
plann ing</w>
Transpar enz</w>
réglem entation</w>
les quelles</w>
sol amente</w>
auf genommen</w>
wer te</w>
inclu idos</w>
gr ands</w>
en o</w>
P RO
F il
Ar ab
fü h
sta bil
gui delines</w>
A U
di enen</w>
soulign é</w>
pro fon
vi vi
ré formes</w>
tionn elles</w>
conoci mientos</w>
encontr ar</w>
judici aire</w>
le k
pati ent</w>
Techn ologi
co hér
résul tat</w>
r um
super visión</w>
ein deuti
B on
ach es</w>
Bun des
mo tivos</w>
th y</w>
Russ land</w>
P op
prop ied
su puesto</w>
encuentr a</w>
g el</w>
Unter sch
dou te</w>
envis ag
F assung</w>
mal gré</w>
év én
Nu eva</w>
R w
coû t</w>
tel ev
D .</w>
an ie</w>
or ders</w>
bu en</w>
fri end
ti e</w>
ten en</w>
− </w>
A L</w>
réserv e</w>
jou er</w>
mi x
. h
f ase</w>
ch ap
wor d</w>
caract ér
consomm ation</w>
tion ing</w>
entwick elt</w>
program </w>
ma il</w>
ch ar</w>
cer ca</w>
pi ed</w>
ampli o</w>
at oires</w>
discus sed</w>
schaf tliche</w>
sicher zustellen</w>
con cr
L auf
we ist</w>
reach ed</w>
peup les</w>
pass er</w>
con tiene</w>
Überein kommen</w>
guar ante
al iné
it ec
priv ado</w>
ali mentos</w>
Kommiss arin</w>
al ta</w>
des plaz
X X
vorgesch lagen</w>
erh ält</w>
agos to</w>
ex pedi
autom ati
dis tric
Herz eg
rech az
le ge</w>
ic ally</w>
equili bri
An gebo
correspondi entes</w>
ar nos</w>
consulta tif</w>
an tee</w>
ad ded</w>
A gent
ac om
Ira k</w>
défin i
restric tions</w>
Überwach ung</w>
us ers</w>
dich os</w>
tas k</w>
effici ent</w>
posibili dades</w>
w ait</w>
tig ten</w>
segur o</w>
ur ban
p eine</w>
déclar ations</w>
ant ly</w>
san it
finanzi ellen</w>
prés ence</w>
sû r</w>
Tex t</w>
c é
at z</w>
b om
op tions</w>
L es
Auf gaben</w>
O st
ör per
pl as
för dert</w>
compati ble</w>
eas y</w>
k raft
sim plement</w>
mechan isms</w>
Rech nungs
por te
relation ship</w>
confer ence</w>
arm ed</w>
über zeu
emb ar
Vi el
id é
ma ñ
Bar ro
eb ra</w>
I de
conven i
hol d</w>
fr ais</w>
dé es</w>
é changes</w>
tor ture</w>
ce ci</w>
Fl ü
Pu blic
illi ci
st udi
e asi
ch ers</w>
dire kt</w>
enten du</w>
Anerk ennung</w>
y n
selb st
mati ques</w>
corrup tion</w>
a tri
ch ron
Syst ems</w>
ven ue</w>
implem enting</w>
arm ament</w>
to wn</w>
au -
em ark</w>
cl ave</w>
áfic o</w>
re habili
Kon sul
fäl le</w>
Isra eli
func tion</w>
T S</w>
dem and</w>
om a</w>
Währ ungs
er ve</w>
prepar ación</w>
amb os</w>
diri ge
mili tar</w>
Fol gen</w>
EU RO
pag o</w>
s ens
ex terior</w>
Br üssel</w>
zen tri
H oh
extern al</w>
restruc tur
integr ated</w>
viol ation</w>
mili taire</w>
ci- des
a x</w>
besch äf
ten go</w>
auto cht
s el</w>
Gerichts hof</w>
ap preci
fr équ
h ors</w>
máxim o</w>
tiv ely</w>
besteh enden</w>
alimen taire</w>
pregun tas</w>
W issen
tiv ement</w>
m as</w>
Beteilig ung</w>
techn ische</w>
man date</w>
proces ses</w>
Par ty</w>
M O
equ ival
difer encias</w>
Pen al</w>
comun es</w>
S P
ad équ
prev é</w>
étrang ères</w>
hei ßt</w>
at temp
v ía</w>
actu el</w>
beh örden</w>
Ener gie</w>
iss ons</w>
Öffent lichkeit</w>
trabaj ar</w>
S ing
Kontr oll
m ismos</w>
20 15</w>
U R</w>
AC I
resolu tions</w>
schrif tlich</w>
Dan k</w>
zun ehmen
tecn ologías</w>
mar chandis
strength ening</w>
aw are</w>
sup pli
sa is
gewähr t</w>
m acro
peli gr
wichtig er</w>
as ked</w>
ni ño</w>
Griechen land</w>
cré é</w>
neces ita</w>
ec ke</w>
tra te</w>
déta ill
um s
Binnen mark
ür f
se chs</w>
développ er</w>
défici t</w>
Mo del
Gewal t</w>
w ise</w>
sta tion</w>
ro w</w>
D oc
h is
radi o
fa il
n issen</w>
ar emos</w>
t- il</w>
com ercial</w>
défin ition</w>
drück lich</w>
d le</w>
mañ ana</w>
figur an</w>
o is</w>
de te</w>
f ar
ses sions</w>
P L</w>
comb at</w>
fr üh
fi le</w>
W al
Gr enzen</w>
do ws</w>
modific ations</w>
ens ei
D O</w>
r ons</w>
trav el</w>
h aci
uni quement</w>
UN C
Presid ency</w>
parti </w>
P C
verständ lich</w>
princip almente</w>
mi e</w>
enth al
pl ant</w>
Tur key</w>
ser ies</w>
vel y</w>
verschied ene</w>
le o</w>
tra tados</w>
d ag
adecu ada</w>
c ally</w>
lem enta
Schwieri gkeiten</w>
ori ental</w>
neg ative</w>
chos es</w>
ag issant</w>
í m
conoci miento</w>
h t</w>
Infr astr
TH E</w>
Vor bereit
el ements</w>
z in
Komm unik
verfü g
qu esti
elec tions</w>
f áci
Ein satz</w>
Schluss folgerungen</w>
ang eg
benefici os</w>
públic as</w>
resolu ciones</w>
po or</w>
spi elen</w>
si ert</w>
sta ted</w>
ter rain</w>
loo king</w>
def ensa</w>
reform as</w>
sec tors</w>
fun den</w>
armon iz
relativ os</w>
Mind est
ri d</w>
er ais</w>
conven tions</w>
me an</w>
iss ances</w>
col ec
Gef ahr</w>
w ebsite</w>
ti ss
W TO</w>
zeu ge</w>
gen ous</w>
ber s</w>
dé ch
stär k
ex pendi
élarg issement</w>
indem n
Poli tik
strateg ies</w>
custom ers</w>
geg eben
concern és</w>
b ür
tu vi
ti ef
govern ments</w>
de ath</w>
modi fication</w>
proces os</w>
s col
circul ation</w>
tam poco</w>
j ah
m einen</w>
requ ires</w>
situ aciones</w>
di te</w>
Kon ta
b auen</w>
cam ino</w>
es ter
lo t</w>
Tä tigkeit</w>
represent a</w>
long -term</w>
re ad</w>
Re port</w>
Entw ur
compens ation</w>
â ge</w>
sup ply</w>
den noch</w>
finanzi elle</w>
má tico</w>
aver age</w>
desarroll ar</w>
son sti
estrateg ias</w>
Or t</w>
région aux</w>
ré alité</w>
em and</w>
E P</w>
agric oles</w>
scho ols</w>
inclu ir</w>
tr ue</w>
H af
Re présentant</w>
trag s</w>
j äh
k oh
pue do</w>
t ting</w>
Bulg ari
la w
profesi onal</w>
break fast</w>
bei de</w>
entwick eln</w>
führ ungs
Re ak
jurídic a</w>
éch elle</w>
univers al</w>
enferme dad</w>
Untersu ch
mi te</w>
c ado</w>
Res sourcen</w>
ge eign
K yo
ents pricht</w>
En vir
Man agement</w>
ne w
under standing</w>
ís tica</w>
ch é</w>
bo ok</w>
atori a</w>
fai ble</w>
Maß nahme</w>
extrem ely</w>
cu entas</w>
t licher</w>
col egas</w>
in suffis
communi ties</w>
ci udad</w>
Chair man</w>
zi p</w>
ent sprechen</w>
Rat sprä
hi zo</w>
es tre</w>
prim ero</w>
fass t</w>
is s</w>
at ur</w>
enti tl
uc k
unser em</w>
provis oire</w>
trans fer</w>
sal v
Pre is
ouver t</w>
9 -
Initi ativen</w>
N ord
c ob
legisl ative</w>
W ert</w>
vis u
si è
er tura</w>
af ir
resol ver</w>
multilater al</w>
S P</w>
conclu sión</w>
nom br
lead ing</w>
men or</w>
aspec to</w>
ali en</w>
v ente</w>
de -
F er
tr áfico</w>
se ur</w>
samm lung</w>
exam ine</w>
circun stancias</w>
pr estar</w>
alc ance</w>
Zentr al
prop ios</w>
M U</w>
kon zentri
hal f</w>
ech sel
er leich
ä st
sem ana</w>
sic os</w>
cost es</w>
lie f</w>
fü gt</w>
198 5</w>
mun di
Proje kt</w>
Koordin ierung</w>
fa ite</w>
I V
anim aux</w>
ad ver
examin é</w>
pour ra</w>
s per
UN D</w>
Tages ordnung</w>
issu ed</w>
voul ons</w>
Dok um
Heraus forderungen</w>
veh í
dem ment</w>
high -
dé sign
ri ge</w>
ep i
ser aient</w>
fom entar</w>
próxim o</w>
schn ell</w>
guar antee</w>
es -
auf trag
ª </w>
MI NU
esfer a</w>
com port
famili as</w>
Sch wer
os t</w>
K ur
par lementa
P AR
inform ed</w>
n ations</w>
sta ble</w>
in der
u b
alle in</w>
assur ance</w>
bestimm t</w>
W est</w>
M P</w>
w an
Itali a</w>
str oph
annu el</w>
cel le
fronter as</w>
bo o
S a
perspec tives</w>
Vereinbar ung</w>
dispon e</w>
individu als</w>
rou te</w>
di gn
D C</w>
it ure</w>
é missions</w>
è vement</w>
x is</w>
milli ards</w>
entr ada</w>
eh ol
rach tens</w>
reper cu
Pre ise</w>
E rachtens</w>
lik ely</w>
ac com
cy cle</w>
acon te
re ich</w>
pré vue</w>
materi als</w>
C ódigo</w>
is lam
cham bres</w>
Cum bre</w>
our g</w>
è ces</w>
o ficial</w>
Ar mu
mej ores</w>
ev olución</w>
i er</w>
leist ung</w>
to -
ré solutions</w>
responsabili tés</w>
Ein w
S T
E EC</w>
y endo</w>
ri ons</w>
o ce</w>
lead ers</w>
civi li
fer ro
ten gan</w>
besser e</w>
détermin er</w>
scienti fic</w>
ges ehen</w>
al b
ic k</w>
lan da
Wor t</w>
br ought</w>
leist ungs
us age</w>
groß er</w>
min es</w>
men sch
Z wei
occup ation</w>
beginn ing</w>
é vo
Über prüfung</w>
Kom prom
Add .1</w>
set ting</w>
al ing</w>
mon th</w>
L E</w>
zweit ens</w>
anti gu
star k</w>
ológ ica</w>
serv ir</w>
ci dad</w>
V is
verb ind
ver wal
con grat
adici onales</w>
des ea</w>
men u
under stand</w>
utz t</w>
déf is</w>
qu iz
pres ents</w>
inten ded</w>
L as</w>
ermögli cht</w>
Ber lin</w>
S .
hacer lo</w>
hi li
ag ing</w>
adop tadas</w>
in fer
produc tores</w>
ne ar</w>
tu de</w>
gebi et</w>
z ca</w>
Fried ens
Beh örde</w>
J </w>
C ámara</w>
ein gesetzt</w>
nah m</w>
actu alidad</w>
Auf merk
hum ains</w>
HC R</w>
pri orities</w>
ti les</w>
recommand ation</w>
ch im
j obs</w>
inter cambio</w>
introduc ed</w>
eri a</w>
Con gr
isi e</w>
völ lig</w>
sor mais</w>
bo t</w>
com pañ
er -
ar ing</w>
institu cional</w>
prop on
mo vement</w>
pro long
stell ungen</w>
h ouse</w>
un f
Rus sian</w>
vergan genen</w>
ay a</w>
am er
minis teri
san ciones</w>
Pun kte</w>
ju dic
amp f</w>
ver ring
cri tical</w>
do ing</w>
dé sormais</w>
Verh äl
M essi
tä ten</w>
Rw anda</w>
M I</w>
ins ur
übri gen</w>
â g
E mis
marchandis es</w>
strateg ic</w>
e des</w>
lo gi
cu o
Secre tariat</w>
di vi
promo ting</w>
compar ed</w>
pap er</w>
H -
ologi ques</w>
stratégi es</w>
tig es</w>
Bei tritts
C entro</w>
ens uring</w>
Ber eiche</w>
extrê mement</w>
particuli ère</w>
th -
condi ción</w>
ger ing
it z</w>
f ying</w>
é ten
pou voirs</w>
gesch affen</w>
H ei
ej er
mon tre</w>
C ivi
begr enz
st ä
mod èle</w>
begrü ßt</w>
interven tions</w>
200 0-
minis tre</w>
h ori
vis to</w>
com ent
p ad
isi on
permi tir</w>
u estr
se k
dat es</w>
lé gi
mili taires</w>
produc ed</w>
pre -
in er</w>
198 0</w>
ordn ungs
inst ance</w>
n or</w>
fe el</w>
R E</w>
pack age</w>
è tes</w>
Sitz ung</w>
T he
p tom
ministr es</w>
vo té</w>
circum stances</w>
erg än
se it
sc ale</w>
äs si
Diskus sion</w>
billi on</w>
fon d</w>
pa te</w>
lut ter</w>
pro spec
am s</w>
Weit er
a .</w>
Bur undi</w>
fu sion</w>
celle -ci</w>
st or
ac us
Stär kung</w>
ren di
fre u
d aten</w>
G em
Gemein schaften</w>
señal ar</w>
min or
G ü
bur eau</w>
m iss
li qu
sec tori
oc cu
accro ître</w>
sub s
AC P</w>
ag ers</w>
r und</w>
fr ont</w>
An teil</w>
recib ido</w>
consequ ences</w>
Haushal t</w>
ver letz
s par
an teriores</w>
jewei ligen</w>
ag entes</w>
cl ín
lam enta
Serv ices</w>
Nor d</w>
garanti e</w>
aquel los</w>
land a</w>
k ehr
prac tical</w>
improv ed</w>
Zw eck</w>
ent or
un er
réalis er</w>
develop ments</w>
ac cr
5 .</w>
getro ffen</w>
contra ire</w>
Was ser
tar ea</w>
reci entemente</w>
ac ord
al er
ab ri
M ili
Messi eurs</w>
elek tron
versi cher
ar ily</w>
délég ations</w>
ein g</w>
H ar
ap préci
Secré tariat</w>
cent ury</w>
T un
d enti
B E
comm ents</w>
Reform en</w>
is ol
äußer st</w>
pa tri
Govern ments</w>
weltw eit</w>
An zahl</w>
gehör en</w>
berücksich tigen</w>
act ing</w>
Re fer
e cht</w>
re des</w>
versi ón</w>
improv ing</w>
Barcel ona</w>
clin ical</w>
menu do</w>
i les</w>
Arbeitspl ätze</w>
ab kommen</w>
aprob ó</w>
approuv é</w>
sti eg</w>
an unci
isti ques</w>
autocht ones</w>
dé pend
pay ment</w>
ta c
crédi ts</w>
gr adu
Betri eb
G eld</w>
M isión</w>
bilater al</w>
Qu é</w>
dam es</w>
Protok oll</w>
requ ests</w>
po bres</w>
con vic
enci ales</w>
entitl ed</w>
E IB</w>
li ter
evalu ar</w>
pu di
Tra ité</w>
pu er
W ei
Pro f
perspec tiva</w>
mal heureusement</w>
siti o</w>
Prior itäten</w>
ac teurs</w>
institu tional</w>
Ir landa</w>
mínim o</w>
bo a</w>
á ticas</w>
accep t</w>
t op</w>
bec om
n é</w>
publ ished</w>
com prim
consid ère</w>
urg ent</w>
det all
et z</w>
num ér
S ur
eff ek
Um fang</w>
Se ktor</w>
con ex
mo ve</w>
Mon ate</w>
Proz ess</w>
ff er</w>
ígen as</w>
av ances</w>
op position</w>
Verbind ung</w>
friend ly</w>
part ments</w>
ec ken</w>
pur poses</w>
Austr alia</w>
Ber ücksich
consum ers</w>
sta t</w>
Co sta</w>
ci mientos</w>
sug gest
sa chen</w>
su sci
verpflicht et</w>
differ ences</w>
wer t
pun kte</w>
chall enge</w>
Rom a</w>
zusätz liche</w>
me an
ale za</w>
adop t</w>
d s
Ein richtungen</w>
Agen cy</w>
sug g
lu ego</w>
sag te</w>
fre qu
cul tura</w>
par li
G eh
Proto col</w>
Berücksich tigung</w>
organ isi
C l
ni cht
ad quir
u sion</w>
aliné a</w>
identi fied</w>
derni ers</w>
élimin ation</w>
Ein richtung</w>
auf en</w>
plac es</w>
excep tion</w>
pa tr
fu entes</w>
re in
ré un
histori a</w>
r ag
aproxim adamente</w>
Mittel me
am ento</w>
m age</w>
inf anti
bl emente</w>
hy po
dra it</w>
V II</w>
c alls</w>
200 2-
Bosni a</w>
re porting</w>
rich tig</w>
Posi tion</w>
asoci ados</w>
re pe
ex c
fi és</w>
läs st</w>
ut ter
muestr a</w>
consider ar</w>
P au
Sta at</w>
de pen
trat ar</w>
i -ci</w>
t í
Analy se</w>
l üsse</w>
cor ri
Ir lande</w>
ér ation</w>
me in</w>
fiz ierung</w>
segu ido</w>
Ges chi
wür di
Produ ktion</w>
US -
celu i-ci</w>
ges prochen</w>
C ap
I l</w>
hin zu
well -
distin tas</w>
o il</w>
o graphi
exper t</w>
Gebi eten</w>
é po
Universi ty</w>
ver m
j ob</w>
abili ties</w>
Agr icul
J e
tradi tion</w>
Lis boa</w>
vir us</w>
m at</w>
cam in
actu ally</w>
kl einen</w>
médic aments</w>
I tal
be an
fa ites</w>
ens t</w>
meas ure</w>
M ag
Co ordin
ol li
qua tri
ti sh</w>
nei gh
plac ement</w>
dicta men</w>
iz e</w>
is ten
gen es</w>
arg ent</w>
Tä tigkeiten</w>
congrat ul
ven u</w>
N ahr
Ein haltung</w>
W omen</w>
cré dit</w>
he ad
cre ci
sc ope</w>
present ó</w>
an -
ho l</w>
n omm
ter in
appro xim
h ard</w>
et c</w>
utilis és</w>
r y</w>
investig ation</w>
aband on
val or
conduc ted</w>
gegeben enfalls</w>
Envir on
An n
be für
heb ung</w>
ren contr
M os
dr a</w>
lo sigkeit</w>
nation aler</w>
kr äf
pres sure</w>
pos er</w>
ss yst
Ihr er</w>
T our
erg reifen</w>
Präsident schaft</w>
il legal</w>
lic </w>
H au
Mes dames</w>
cre dit</w>
n ation</w>
stat ements</w>
br an
show s</w>
Z ul
mod alités</w>
h op
adap tation</w>
er sch
autor isation</w>
G -
best en</w>
ne u</w>
Aufmerk samkeit</w>
go als</w>
ein geführt</w>
associ ations</w>
cl air</w>
S ache</w>
bem üh
clar a</w>
I .</w>
sti mul
com eti
T -
possi bility</w>
elec tron
cu yo</w>
post -
refor zar</w>
buil d</w>
Lebens mittel
Hi gh</w>
I rel
mili tares</w>
peli gro</w>
Span ish</w>
Ch in
ex tent</w>
00 000</w>
correspondi ente</w>
Ber uf
n eben</w>
ho st
app elle</w>
Vic e-
permet tra</w>
o tor
ab ou
cl aim</w>
M al</w>
conten u</w>
i an</w>
ami entos</w>
stär ker</w>
hab itu
Voraus setzungen</w>
ri ft</w>
s äm
lo wer</w>
técn icas</w>
s pon
chô mage</w>
n ö
6 0
op or
no tes</w>
a il
A sie</w>
Z im
mati ères</w>
R ob
entsprech ende</w>
metho d</w>
concili ation</w>
ú a</w>
vol le</w>
p it
Pers onal</w>
ent ary</w>
Mad rid</w>
geb ung</w>
amen aza</w>
Irel and</w>
betreff end</w>
al li
em in
ab sten
k ungen</w>
grow ing</w>
remerci e</w>
Gel d
Ital y</w>
in cu
comple x</w>
ac o</w>
dis che</w>
re un
Sum mit</w>
reg ime</w>
solu ciones</w>
r un</w>
gesam te</w>
us eful</w>
garanti z
habr ía</w>
Pra xis</w>
frecu encia</w>
montr é</w>
men er</w>
U hr</w>
des af
wen det</w>
erfol gt</w>
Kapit el</w>
be vor</w>
proch aine</w>
celebr ada</w>
ré sou
dev ra</w>
vra iment</w>
vor aus
P aci
recom i
isra éli
ma k
di ej
vol umen</w>
rati fication</w>
ver treten</w>
contribu ciones</w>
sé par
f ang
e ist
su i
Erfahr ungen</w>
comb usti
2 50</w>
obst á
be zo
av antages</w>
Dé partement</w>
multilat ér
An frage</w>
m ale</w>
vis ory</w>
cu ya</w>
vo is
proporcion ar</w>
loc aux</w>
produc teurs</w>
em erg
tionn els</w>
re vi
expl or
exerc ise</w>
ech an
mis si
Wirtschafts -</w>
rem pli
Lond on</w>
phy sical</w>
recib ir</w>
é simo</w>
medi o
col on
f el
men s
P H
Aktiv itäten</w>
vigil ancia</w>
ri eben</w>
Di re
ér é</w>
L ag
aliz ado</w>
anno un
at ement</w>
ed ores</w>
Am bass
kon om
déch ets</w>
amen az
Einfu hren</w>
sou ffr
tu to</w>
allgem eine</w>
Bür gern</w>
la y</w>
ten de</w>
pén ale</w>
compli ance</w>
reconstruc tion</w>
territ ory</w>
al um
constitu yen</w>
bi g</w>
enc ed</w>
Mill enni
künf tigen</w>
ni ght</w>
sem aine</w>
TA D</w>
effic aces</w>
y ond</w>
Bei tritt</w>
geg ensei
Investi tions
dra w</w>
gestell ten</w>
Bem erk
FA O</w>
matéri el</w>
ander em</w>
pri or</w>
for te</w>
véri table</w>
br auch</w>
applic ables</w>
stoc ks</w>
foll ow</w>
K ultur
realiz ación</w>
I N</w>
sex es</w>
deta iled</w>
recomend ación</w>
ob ern
élabor er</w>
hä tten</w>
W ebsite</w>
Jap ón</w>
Esp agne</w>
travaill er</w>
lo ad</w>
demokrati schen</w>
z- vous</w>
peti tes</w>
sat elli
Ber eit
Eini gung</w>
pollu tion</w>
be auftrag
kl ar
d liche</w>
pur ch
O F</w>
Tra de</w>
mu erte</w>
ad resse</w>
beau ti
k ap
Wo che</w>
® </w>
n on
id ent</w>
it ems</w>
lo in</w>
Dritt ländern</w>
C ari
agricul tura</w>
Li b
excel ente</w>
Arbeit en</w>
pres ence</w>
peti ción</w>
ci ales</w>
En erg
refuge es</w>
vie w
appro fon
U K</w>
her en</w>
deu da</w>
pri ori
t ests</w>
K en
traf ic</w>
í menes</w>
V ir
t ando</w>
F isch
un fortun
mo un
im possible</w>
estr ic
man ner</w>
figur ant</w>
Itali e</w>
facilita te</w>
Instrum ent</w>
M id
tor ia</w>
ch e
s av
et é</w>
richt et</w>
natur aleza</w>
quier e</w>
3 5
esfuerz o</w>
S ar
instal aciones</w>
F und
t t</w>
respon der</w>
Sel bst
continu es</w>
wach s
s au
Ir land</w>
install ation</w>
in spir
H inter
saf e</w>
prob able</w>
be darf</w>
Ma ur
w at
mainten ir</w>
crip tion</w>
Sta tisti
li r</w>
communau tés</w>
Ni cht
be ziehen</w>
1 20</w>
Zu ständi
exis tencia</w>
pres erv
y r
terror istas</w>
adolesc ents</w>
pro je
po ol</w>
is en
pu issent</w>
carr y</w>
con ci
ic ana</w>
der es</w>
defin ed</w>
deli tos</w>
P ay
explo tación</w>
di gital</w>
UNC TAD</w>
he al
su mm
be findet</w>
Schen gen</w>
modi fier</w>
Bal k
s mo
en des</w>
as pir
fisc ales</w>
Sta bilität</w>
N ation
men ace</w>
in titul
terror istes</w>
besonder en</w>
vo tes</w>
ge tragen</w>
sensi bil
Perman ente</w>
cho is
An fang</w>
sch es</w>
Pan el</w>
verhin dern</w>
adop tées</w>
fin ance</w>
gew o
medic amentos</w>
effici ency</w>
S ain
Barro so</w>
häu fig</w>
Car ta</w>
z iert</w>
f an
autoriz ación</w>
déb ats</w>
dis pu
pos te</w>
l d
vis ées</w>
auth or
enferme dades</w>
Luxemb ourg</w>
solici tudes</w>
eingesch rän
Inv est
pl ain
L am
ur spr
réglem enta
appar a
K ultur</w>
registr o</w>
determin ación</w>
len gu
aussch usses</w>
ei cher
vul n
D R</w>
jo in
N º</w>
certain ly</w>
fr ac
vo ix</w>
M ic
Menschen rechts
profesi onales</w>
geleit et</w>
form al</w>
defini ción</w>
Hin sicht</w>
recht lichen</w>
um gesetzt</w>
acc us
effectiv ely</w>
Gar anti
ve y</w>
rése aux</w>
be finden</w>
F ach
inten ción</w>
opini ones</w>
be yond</w>
constitu tion</w>
di ent</w>
esfer as</w>
materi ales</w>
tiv er</w>
W eb
re views</w>
pauv res</w>
F alle</w>
Ge währ
A S</w>
pár r</w>
cross -
serv e</w>
re alis
fe atures</w>
partici pate</w>
ent fer
cam po</w>
Lie fer
avo id</w>
si ze</w>
per h
fer a</w>
ra dio</w>
progr eso</w>
vo tado</w>
ó s
enti re</w>
én aire</w>
emplo ye
Per son</w>
transpar ency</w>
imp acto</w>
al em
zi eht</w>
pro vo
reduc ed</w>
mari time</w>
escu elas</w>
Regi onal</w>
dû </w>
dr am
install ations</w>
fest gestellt</w>
leg ales</w>
cho ice</w>
Jap on</w>
sk i</w>
Beri chte</w>
Am eri
appli que</w>
konn ten</w>
allow ed</w>
out come</w>
tempor ary</w>
te -
tra dici
categ oría</w>
Innov ation</w>
com fortable</w>
ind re</w>
eth ni
sat z
verfü gen</w>
an gen
Institu te</w>
Fin an
veu t</w>
O ber
S e</w>
stän den</w>
Pre is</w>
concre tas</w>
esper amos</w>
pas se</w>
ho hen</w>
R O</w>
deb t</w>
véhic ules</w>
aliz ados</w>
haci endo</w>
Win dows</w>
all ing</w>
commit ments</w>
Reg ierungs
L ab
es col
er lassen</w>
expor tation</w>
as o</w>
therap eu
fam illes</w>
zur ück</w>
U .</w>
sen se</w>
handel n</w>
M echan
T her
diversi té</w>
cri be</w>
Angeleg enheit</w>
C P
lign es</w>
onn aire</w>
re par
incid ence</w>
ti ennent</w>
diej enigen</w>
Nach bar
signi fie</w>
administr atives</w>
dis tance</w>
every thing</w>
ofici ales</w>
prev al
ambi entales</w>
ch ance</w>
ab sol
su jet
mé todo</w>
princip alement</w>
re z</w>
Num mer</w>
inclu ido</w>
dem uestr
dirige ants</w>
res tr
Colom bia</w>
vor läu
S T</w>
3 1.</w>
ori entation</w>
perh aps</w>
wahr schein
carg a</w>
est er</w>
claim s</w>
interven ir</w>
Entwur f</w>
spe k
iss er</w>
K ir
lear ning</w>
contr act</w>
Declar ación</w>
kontr olli
demand a</w>
ef ul
vuln ér
gr es
infrastruc tures</w>
dang er</w>
lu gares</w>
po d
Beg inn</w>
Her steller</w>
résou dre</w>
Ex ecutive</w>
inst ead</w>
ed ings</w>
ic king</w>
Sy ri
moy enne</w>
urspr ün
ensi ón</w>
charg es</w>
tor no</w>
bo ard</w>
eh er</w>
civ ils</w>
élec tri
m ouv
éri eurs</w>
mani fi
enti dades</w>
tu s</w>
follow s</w>
An wend
perm í
situ ated</w>
Ac ción</w>
than ks</w>
no thing</w>
dur ación</w>
er ti
v is</w>
gan da</w>
UN MI
lo se</w>
is ses</w>
re de
centr ales</w>
est én</w>
Proto cole</w>
ch ef</w>
fortal ecer</w>
gel tenden</w>
p ages</w>
Febru ar</w>
erklär t</w>
comunic aciones</w>
Ö ster
D as</w>
C re
évalu er</w>
C D</w>
man n</w>
D en
prof it</w>
erst ens</w>
Flü cht
syst é
sci ence</w>
ust edes</w>
Cr im
pil o
aus führ
gen heit</w>
Wes tern</w>
Gebi ete</w>
crédi tos</w>
ge funden</w>
ab sor
solidar ité</w>
des arme</w>
e keeping</w>
veröffent licht</w>
S of
Chi le</w>
ist ance</w>
z y
I hren</w>
ambi ental</w>
coun ter
ex i
Ex teriores</w>
dé ploy
collec tive</w>
consul ta</w>
peti t</w>
adecu ado</w>
Pa í
Sta dt</w>
reci bi
ov ina</w>
habit ants</w>
stratégi que</w>
paragraph es</w>
atur a</w>
ad just
partner ship</w>
amend ment</w>
compr endre</w>
program m
au dit</w>
ges und
Engl ish</w>
equilibri o</w>
co opér
diversi dad</w>
accep ter</w>
propied ad</w>
mé dec
esp ér
Cro ati
caus ed</w>
Geschi chte</w>
sty le</w>
6 .</w>
dam os</w>
be dro
Vor haben</w>
organ e</w>
candidat s</w>
hac en</w>
determin ados</w>
rec ru
e .
k ein
der á</w>
h ält</w>
sem anas</w>
flexi ble</w>
tar on</w>
rais ed</w>
mo de</w>
Lös ungen</w>
expor tación</w>
cap ítulo</w>
actu ar</w>
ber g</w>
E jecu
men tion</w>
7 00</w>
get an</w>
compl ain
Z y
viol aciones</w>
go al</w>
wün schen</w>
c ra
í n</w>
wher eas</w>
ie de</w>
le ave</w>
compet entes</w>
al d</w>
unser es</w>
en de
reg ards</w>
kur z</w>
Milli ar
is tic</w>
I L
s élec
ben e
indic ated</w>
recomi enda</w>
considér ation</w>
ungs verfahren</w>
réalis és</w>
por centa
vi aj
ungs -</w>
de cl
inter médi
cli mático</w>
adel ante</w>
suiv ante</w>
min e</w>
Entwickl ungen</w>
ab es</w>
mor al</w>
Wahl en</w>
region ale</w>
subst ance</w>
justi fic
organiz ed</w>
w oll
t nisse</w>
deber íamos</w>
plani fication</w>
ber uf
qu ick
caracter ísticas</w>
docum entation</w>
reci ente</w>
Zus tim
effectiv eness</w>
f ur</w>
verbesser t</w>
Bulg aria</w>
Institu t</w>
acces sion</w>
m einem</w>
arch iv
Al -
métho de</w>
dam age</w>
CN. 4</w>
encuentr an</w>
e e</w>
hum aines</w>
- -</w>
D U</w>
al ist</w>
com prob
natur ales</w>
Fr ist</w>
introduc ción</w>
consolid ation</w>
k ürz
comprom is</w>
resid u
Part ner</w>
get eil
gu ests</w>
expres s</w>
lich ten</w>
trans l
il leg
exp ul
fal t</w>
Fest legung</w>
Af gan
zuständi ge</w>
B IP</w>
e ß</w>
í os</w>
größ ere</w>
requ iere</w>
av ance</w>
außer halb</w>
humanit aria</w>
em isiones</w>
acep tar</w>
Oc cid
ad d</w>
kom ple
cion ar</w>
Lis bonne</w>
Ven e
Stu die</w>
génér alement</w>
strop he</w>
direc ta</w>
ütz en</w>
entschei den
Kyo to</w>
ré parti
conclu ded</w>
br ingt</w>
accor der</w>
Ver gleich</w>
writ ing</w>
möglich keiten</w>
en camin
proz ess</w>
anti cip
g az</w>
K MU</w>
sh op</w>
agr ade
Verpflicht ung</w>
frau de</w>
educ ational</w>
propor tion</w>
ac quisi
A soci
inter pré
ac ab
on io</w>
f ten</w>
independi ente</w>
st op</w>
amb as</w>
kon ferenz</w>
high ly</w>
col as</w>
K ampf</w>
Woh l
bi an</w>
deta ils</w>
we g</w>
C ô
habl ar</w>
Fr üh
con sumer</w>
Gu in
Instrum ente</w>
er lau
fa ßt</w>
es ischen</w>
comi enz
F -
ach tet</w>
Regi onal
F ü
gi ble</w>
Partner schaft</w>
was te</w>
L im
terror ist</w>
bek ann
and t</w>
considé rée</w>
grenz überschreit
da ily</w>
tra to</w>
um ul
ta ining</w>
innov ative</w>
cu br
contr oles</w>
o fer
P E</w>
Genehmi gung</w>
Richt linien</w>
com position</w>
cô té</w>
dé mar
budg étaires</w>
fic inas</w>
reib ung</w>
éch é
e ure</w>
inform al</w>
at or
ne ur
g ente</w>
ung ser
every one</w>
procé der</w>
kr ise</w>
ind ígenas</w>
se ar
res t</w>
speci es</w>
commerci ales</w>
progr ess
tiv ity</w>
P hili
Am bi
entwickl ung</w>
contrô les</w>
immedi ately</w>
particular mente</w>
E D</w>
au sta
de x</w>
sub sequ
c lick</w>
ali e</w>
propu esto</w>
vorgeschlag enen</w>
gemein schaftlichen</w>
consen so</w>
begrü ße</w>
él è
se ems</w>
allow s</w>
reas on
li a</w>
describ ed</w>
im pu
P acto</w>
e quality</w>
er ör
str ess</w>
Kapit al
st art
fom ento</w>
gran ted</w>
Afgan istán</w>
pen al</w>
transfer t</w>
attitu de</w>
ur en</w>
men d
sab emos</w>
C A</w>
wesent lichen</w>
oper ational</w>
entr y</w>
dirig ida</w>
habr á</w>
beh alten</w>
it ter</w>
deleg ations</w>
dis tor
ell t</w>
Grup pen</w>
zahl en</w>
einzi ge</w>
bu ch</w>
fau drait</w>
determin e</w>
tar eas</w>
pen sion</w>
pa k
pen a</w>
prec ed
at t</w>
vollständi g</w>
gl ad
Wir kung</w>
W P.
hist ór
inclu ida</w>
f os
Ar ab</w>
Bri tish</w>
is tics</w>
func tions</w>
Vertrags part
syst eme</w>
li ens</w>
establish ing</w>
v ar
Declar ation</w>
is ent</w>
bed au
deleg aciones</w>
nach dem</w>
g un
transi ción</w>
impor tations</w>
dru g</w>
tradi tion
ell ec
K unden</w>
mögli cherweise</w>
gewähr leistet</w>
ß er</w>
200 4-
ner n</w>
i ère</w>
Yugoslav ia</w>
ex port</w>
ambi ti
stand s</w>
oc k
bed ingt</w>
in c
C openh
elabor ar</w>
fortal e
anc y</w>
we eks</w>
don antes</w>
independ encia</w>
m auv
Zustim mung</w>
as tri
Grün de</w>
äst in
soci o
üc ken</w>
ov </w>
sch ung</w>
é coles</w>
brau cht</w>
reform s</w>
leit en</w>
fre i</w>
zeich nen</w>
ma ß
cin qu
merc anc
Pl en
Public </w>
agrí cola</w>
proce edings</w>
fr ü
conduc t</w>
Vertrau en</w>
pf er</w>
vis é</w>
t esti
O M</w>
pai ement</w>
acom pañ
ni es</w>
dér ation</w>
pro ve
s ommet</w>
dic </w>
Kre di
secre tariat</w>
Fri eden</w>
solidar idad</w>
attein t</w>
main tain</w>
beauti ful</w>
enor me</w>
ob le</w>
üss el
Land wir
compet ent</w>
selbst verständlich</w>
Herzeg ovina</w>
F ähi
M ass
genehmi gt</w>
bur eaux</w>
ti di
aconte cimientos</w>
inter diction</w>
i on
Entschließ ungsan
st ly</w>
Kontr ollen</w>
5 0
prepar ation</w>
erfül len</w>
lag s</w>
mor t</w>
ab schließend</w>
V oll
bar ri
Wi der
L ehr
handic ap
ju dice</w>
dej ar</w>
ren ew
Frei heit</w>
compé tence</w>
probl em
thi op
préoccup ations</w>
ti er</w>
plani ficación</w>
ad oras</w>
Ver öffent
com ités</w>
tar de</w>
main ly</w>
nachhal tige</w>
m isiones</w>
indic ateurs</w>
Israeli </w>
her aus
específic as</w>
con vin
Aus bildung</w>
sat zes</w>
lin ks</w>
catég orie</w>
govern ance</w>
cam pagne</w>
ré clam
an es</w>
O l
T u
col le
ex ce
Minis teri
identi fication</w>
bus in
Argent ina</w>
li ves</w>
subra y
par ler</w>
d arg
ne ver
Euro stat</w>
lleg ado</w>
gener ally</w>
mechan ism</w>
B ah
Ab schnitt</w>
afec tados</w>
sup érieur</w>
interes ados</w>
C I</w>
ér ité</w>
de tte</w>
ofrec er</w>
stän de</w>
ch eck</w>
UN ES
reven u</w>
ex primer</w>
po int
activ a</w>
r aum</w>
transpar ent</w>
contin ent</w>
descrip tion</w>
ouver te</w>
évén ements</w>
capi é</w>
ass ist</w>
men ées</w>
médic o</w>
atta ck
end or
hin capié</w>
cl asi
Geg en
los s
exclu sion</w>
pop ular</w>
Kin dern</w>
eb y</w>
étrang ers</w>
Prü f
Regel ungen</w>
cre ating</w>
steu er
ne y</w>
go la</w>
Mil enio</w>
Ma astri
immédi atement</w>
r ang
Ein sch
f eld</w>
uni es</w>
ch ter</w>
igu almente</w>
under taken</w>
S S</w>
E M
lin k</w>
eigent lich</w>
drin gend</w>
ni eder
énerg étique</w>
vi ennent</w>
quatri ème</w>
conna issance</w>
alis er</w>
acc ent</w>
reserv as</w>
l aid</w>
a il</w>
zum ind
Ku wait</w>
dis c
peop les</w>
3 3
Ver tei
s cre
Nahr ungs
W est
prop ag
D inge</w>
indic adores</w>
harmon isation</w>
mb H</w>
Schrit te</w>
m är
m én
o ficinas</w>
posi tivo</w>
alis m</w>
1 000</w>
sufici entes</w>
eh em
I C</w>
activ o</w>
ri ch</w>
targ et</w>
UN DP</w>
V iz
ú </w>
mit es</w>
zumind est</w>
dis as
super fici
er l
Agent ur</w>
non- governmental</w>
M and
défin ir</w>
activ os</w>
0, 000</w>
car d</w>
Lin ie</w>
bun den</w>
adici onal</w>
E rei
d on</w>
P RE
garant ía</w>
t onnes</w>
his toire</w>
fish ing</w>
P N
essenti ellement</w>
EME A</w>
el o</w>
cap able</w>
contr oll
bew us
mittl ung</w>
W ege</w>
caus as</w>
y ed</w>
sh or
fac teurs</w>
demostr ado</w>
eindeuti g</w>
Dé clar
m m</w>
str uk
ter ung</w>
geo graph
s age</w>
inv it
difer encia</w>
inclu idas</w>
é tn
reconna issance</w>
pro stitu
crédi to</w>
ter en</w>
comple ted</w>
sel ben</w>
aci onales</w>
tra vers</w>
Perman ent</w>
mi les</w>
H ung
E valu
om o
ci os</w>
derzei tigen</w>
prior it
tic ally</w>
d op
entor no</w>
elem ento</w>
spr ü
al ista</w>
komm enden</w>
hum aine</w>
K raft
er wart
plat z</w>
comple ta</w>
bil atér
zus tim
ali ties</w>
rec ur
indi genous</w>
naci on
Vor sitz</w>
Armu t</w>
wi eg
difficul ties</w>
B or
y th
Tur k
Le one</w>
vis ée</w>
be kommen</w>
re produc
so ft</w>
parti da</w>
indic a</w>
tan dis</w>
ológ ico</w>
tribun ales</w>
pré al
me tros</w>
For ce</w>
k ar
tâ che</w>
bi e</w>
clos ely</w>
qu ím
off ices</w>
Min der
Ob serv
profes sion
. 2</w>
follow ed</w>
gouvern ance</w>
er sucht</w>
ti mi
meil leur</w>
proto cole</w>
T ER
un ded</w>
lat est</w>
f s
Económ ico</w>
di enste</w>
ver suchen</w>
improv ement</w>
exten sion</w>
a ér
fre und
im ages</w>
détermin ation</w>
Au di
w ettbewer
fi les</w>
J ord
necesit an</w>
con figur
end um</w>
län dlichen</w>
dag egen</w>
re tur
sou ligne</w>
zu gel
human a</w>
fu ente</w>
den unci
Fol ge</w>
evid ente</w>
O s
pharm ac
dan ke</w>
anz en</w>
off ic
ac lar
A li
gel eist
g ame</w>
De fin
R ats
st ein</w>
ess ed</w>
A M
tro l</w>
epi dem
di ez</w>
F ar
vari ables</w>
Déclar ation</w>
ú til</w>
An gola</w>
St ellen</w>
Belar us</w>
konkre te</w>
Au th
ré fér
erfol gen</w>
ech ni
r ise</w>
I denti
Prin cip
rec urr
S ci
cas a</w>
Spi el
Polic y</w>
ren du</w>
Studi en</w>
bek räf
human o</w>
w -
ré jou
commun es</w>
ta k
F é
bro ad
Wo chen</w>
play ed</w>
ã o</w>
ph one</w>
elec tri
traff icking</w>
mon étaire</w>
ur b
const ante</w>
z ing</w>
determin ed</w>
sem aines</w>
médi as</w>
stan cia</w>
elimin ación</w>
Er wä
ho he</w>
distin gu
es pañ
impor taciones</w>
fäl lt</w>
marg in
Bürger innen</w>
Min u
ho od</w>
H O</w>
7 .</w>
Ter rit
candi datos</w>
hag a</w>
bá sicos</w>
oc ur
· </w>
ag o
UNES CO</w>
long temps</w>
de gre
Al li
ch ec
mob ile</w>
par fois</w>
expendi ture</w>
unfortun ately</w>
trans mi
er setzt</w>
expres ar</w>
ex ter
trä ch
erfül lt</w>
diversi ty</w>
J er
ven us</w>
b ol
Spr ache</w>
fi li
en os</w>
indem ni
H armon
bre chen</w>
é m
cons eil</w>
K ata
permet te
v enta</w>
mala die</w>
responsabili dades</w>
CO 2</w>
sur ro
ori enti
prépar ation</w>
kl eine</w>
pour tant</w>
e o</w>
Anpass ung</w>
pursu ant</w>
etz ung</w>
enn al</w>
Mat eri
be obach
ré sid
Si cht</w>
N ic
fil les</w>
Cô te</w>
wahrschein lich</w>
ó sito</w>
I t</w>
b ed</w>
h am
isti schen</w>
tä tig</w>
j ap
ac og
atta ch
Jahr hunder
Solidar ität</w>
Lissab on</w>
destin és</w>
G mbH</w>
onc é</w>
at tre</w>
ré vision</w>
P fl
betreff en</w>
complé men
équi pe</w>
ö konom
dé cl
T sch
suffis amment</w>
gu ten</w>
anc ing</w>
A sy
Ver sicher
ing -
Paí ses</w>
O s</w>
ec er
electron ic</w>
h echos</w>
O pfer</w>
mark eting</w>
trans actions</w>
fin almente</w>
F eh
labor al</w>
größ ten</w>
indi que</w>
mili tär
di am
dev ait</w>
0. 000</w>
fest gelegten</w>
á l
pag os</w>
alimen taires</w>
aliz ada</w>
ass emb
k n
ur al</w>
cor d</w>
noti fication</w>
N E
ein schlä
m äch
Bed ürf
flo or</w>
trait er</w>
thre at</w>
inclu sion</w>
N T</w>
My an
pr ison</w>
neu tr
for um</w>
tra tado</w>
E ri
ra zon
pr êts</w>
L t
au teur</w>
Si gn
Cor te</w>
ur ed</w>
correspon de</w>
del à</w>
appu yer</w>
4 0
comunit arias</w>
bl an
for ma
estim ated</w>
ay ing</w>
K al
ini cial</w>
da ta
je u</w>
recuper ación</w>
S tar
li bre
an sch
jähr lich</w>
deli to</w>
g obern
ris ks</w>
félici ter</w>
Indon esia</w>
besch ließ
erk ennen</w>
at em
apo ya</w>
elimin ar</w>
ti se</w>
bénéfici er</w>
künf tige</w>
lauf en</w>
fi el
Bus h</w>
fi ées</w>
cu ali
pro sper
jec ted</w>
gemein sam
op osi
cultur ales</w>
adress ée</w>
Her stellung</w>
ander s</w>
s end</w>
dar stellt</w>
comm issions</w>
Comis aria</w>
int ellec
compr end</w>
E ducation</w>
- H
r un
arch itec
orig in</w>
Be obach
investig aciones</w>
Som alia</w>
S ank
bas tante</w>
ab use</w>
comple to</w>
enn t</w>
plem ente</w>
T at</w>
électron ique</w>
orienta ción</w>
co hésion</w>
tig te</w>
tot ale</w>
stär ken</w>
For eign</w>
ag ésimo</w>
Vor teile</w>
plé ni
re ag
À </w>
im pun
notwendi gen</w>
A gence</w>
so weit</w>
dé pos
P f
lan g</w>
nav ig
Gen ève</w>
effectiv ement</w>
tem per
proces sing</w>
Mit arbeit
sear ch</w>
comprom eti
alg ún</w>
B lu
Fischer ei</w>
zahl reiche</w>
Priv at
ver standen</w>
to ol</w>
su stancias</w>
ver bunden</w>
favor iser</w>
mul tin
circul ación</w>
famili ar</w>
sin cer
par tage</w>
an ische</w>
b os
program ms</w>
Administr ation</w>
zu folge</w>
compl ète</w>
z- moi</w>
prohibi ción</w>
occ asi
hy dro
diff usion</w>
Grund sätze</w>
augment er</w>
aplic able</w>
recon cili
chang ed</w>
di jo</w>
breit ung</w>
rap p
contr at</w>
k unft</w>
bet ont</w>
pou vez</w>
pa trim
secre taría</w>
esta ban</w>
198 4</w>
Ih r</w>
au teurs</w>
Lis bon</w>
je un
vis és</w>
uti li
st ar</w>
Fin n
und ation</w>
appr ou
Absch luss</w>
C al
ge kommen</w>
auth ori
wieder hol
h eben</w>
fail ure</w>
compéti tivité</w>
Myan mar</w>
ge zeigt</w>
R aum</w>
consist ent</w>
gre at
sup porting</w>
Nor th</w>
si chten</w>
as c
empê cher</w>
ú s
mencion ado</w>
enqu êtes</w>
Mittel n</w>
sup ports</w>
ti ó</w>
lu x
asoci aciones</w>
é ti
Co un
ge prüft</w>
heu tigen</w>
Ban glad
Mal ta</w>
ier on</w>
quick ly</w>
identi fy</w>
comple tely</w>
uni ón</w>
deb ati
structur al</w>
dro gas</w>
lö sen</w>
reven us</w>
pé tro
z ö
as sez</w>
Ver änderungen</w>
Mi gr
K op
leit ung</w>
europ a.
P SE</w>
reserv a</w>
fuer te</w>
wach st
aim s</w>
man o</w>
dra wn</w>
sch ützen</w>
budg ets</w>
P at
port ent</w>
bili ties</w>
t ent
er weit
ge worden</w>
s eines</w>
oc urr
th eless</w>
K ü
ev entu
rei chung</w>
verk ehrs
A P
de posi
concern ées</w>
s th
don ateurs</w>
cul ar</w>
Ori ente</w>
erklär te</w>
il íci
p eso</w>
concl u</w>
bestä tigt</w>
prés enta
separ ate</w>
li mit</w>
writ ten</w>
high est</w>
Ch anc
buil t</w>
cam paña</w>
a dem
at oren</w>
pré venir</w>
lan gues</w>
di r</w>
Bru x
I S</w>
sim plemente</w>
geb il
. U
res puestas</w>
res titu
beli ev
B -
inspec tion</w>
mercanc ías</w>
ur ban</w>
lead ership</w>
increas ingly</w>
dis armament</w>
comb atir</w>
S ommet</w>
ef e</w>
conflic ts</w>
vide o</w>
pres se</w>
grei f
organis ationen</w>
C a
ren ouvel
vehí culos</w>
économ ies</w>
Ein fl
pre limin
hori zon
M s.</w>
hal ten
I voire</w>
i- même</w>
Fr ag
Asoci ación</w>
indépend ance</w>
ge ber</w>
land s
palestin os</w>
gr ade</w>
econom ías</w>
ati ques</w>
never theless</w>
Nor te</w>
religi on</w>
verfü gt</w>
Rel ator</w>
ter e</w>
A N</w>
Deleg ation</w>
Gen eva</w>
eful ly</w>
garanti es</w>
Grund satz</w>
realiz ados</w>
d ant</w>
tre ated</w>
ist os</w>
cir con
ge zogen</w>
y an</w>
infra estructura</w>
ge wäh
bestimm ungen</w>
sou ver
contr o
politi scher</w>
co sa</w>
ple ased</w>
cur ren
hi jos</w>
cho ose</w>
O m
I mm
contr atos</w>
An spruch</w>
dé rou
ver stehen</w>
recogni zed</w>
awar eness</w>
geh oben</w>
so und</w>
Was hing
W ahl</w>
Konzep t</w>
M ari
ans wer</w>
contra to</w>
agrí colas</w>
m ol
M erk
bestimm ter</w>
Gr èce</w>
atis ch</w>
compu ter</w>
ab led</w>
Georgi a</w>
elec ción</w>
lu ß
H and</w>
dé liv
enfor cement</w>
li e</w>
H aus
unil ater
adop te</w>
l ad
S alu
Viz epr
injec tion</w>
ehem ali
lus ses</w>
tom ado</w>
genann te</w>
ch s
Nig eria</w>
proced entes</w>
T y
di x</w>
ahr en</w>
res tor
emph asi
wer s</w>
efic aces</w>
fronter iz
conserv ation</w>
ho sti
peque ños</w>
show ed</w>
Liber ia</w>
approv al</w>
supplémen taire</w>
Terror ismus</w>
d omm
en largement</w>
um wel
numér o</w>
W erte</w>
observ ation</w>
R è
8 .</w>
r ut
off ered</w>
A G
ab i
to ols</w>
form ular</w>
Ver tre
e dern</w>
estudi antes</w>
Umwel tsch
gi ving</w>
s ement</w>
ord nete</w>
organis é</w>
ei gene</w>
haup t</w>
D oll
continu ing</w>
gir ls</w>
particip é</w>
Can ad
gubernam ental</w>
mas sive</w>
In de</w>
offici als</w>
dossi er</w>
appe ar
com ed</w>
as tung</w>
art .</w>
judici ales</w>
li qui
Bil dungs
err or</w>
compet encias</w>
f lä
ó p
R -
an hand</w>
publi é</w>
porcenta je</w>
limi te</w>
M S</w>
m in</w>
Stell ung</w>
nouv el</w>
pres tación</w>
Geschäfts ordnung</w>
trad uc
im i
Ori ent</w>
sk ills</w>
compét entes</w>
oper ating</w>
gi ves</w>
aux quels</w>
llev a</w>
Brux elles</w>
a zi
po st</w>
accomp agn
determin adas</w>
pers ist
logr ado</w>
Men ge</w>
sh ops</w>
m ur
recommend ation</w>
gewi cht</w>
représent ent</w>
Glob al</w>
gegenwär tig</w>
su ce
enta do</w>
bal d</w>
on s-
si x
impor tation</w>
bil dungs
mainten ance</w>
agu as</w>
G in
prev istas</w>
discipl in
ger t</w>
st s</w>
DE L</w>
Arbeits losigkeit</w>
ethn ic</w>
cr ises</w>
reco gn
déla is</w>
acquisi tion</w>
Char te</w>
st es</w>
er warten</w>
follow -up</w>
dev rions</w>
Milliar den</w>
H u
al one</w>
pri vi
l ös
implic ations</w>
ocasi ón</w>
O I
su pone</w>
AK P-
200 7-
B aj
chiffr es</w>
vi er
pr or
sch ö
wesent lich</w>
defini tion</w>
tas as</w>
mism as</w>
esta ur
gel ö
entschei den</w>
equip ped</w>
b â
ten ía</w>
fic ally</w>
ex act
li es</w>
accep ted</w>
Ver sch
estad ísticas</w>
com por
consum ption</w>
reg eln</w>
ferro vi
In forme</w>
sp ati
destin ation</w>
unter breit
Señ ora</w>
è tres</w>
reg elung</w>
h id
o di
dé plo
Aus w
verabschie det</w>
déten tion</w>
K ris
f are</w>
enh ance</w>
c raft</w>
A G</w>
off ensi
view ed</w>
at as</w>
appe ar</w>
tel ec
Civi l</w>
Mob ili
ari amente</w>
del incu
ex haus
str af
Belgi en</w>
musi c</w>
en g</w>
wär en</w>
g ungen</w>
Bed ar
í r
m ment</w>
or amiento</w>
Ges prä
consider ación</w>
favor ables</w>
aussch uss</w>
V o
Dr uck</w>
Washing ton</w>
L an
ämpf en</w>
list ed</w>
iv e</w>
correc t</w>
der ungen</w>
cre ado</w>
con ç
ar ían</w>
eng age</w>
B as</w>
sub mit</w>
A zer
gun sten</w>
Mex ico</w>
Öster reich</w>
territori al</w>
des empleo</w>
grund lage</w>
V an</w>
on going</w>
professionn elle</w>
ban ques</w>
al istas</w>
ish ing</w>
modi ficación</w>
mala dies</w>
Ak tionen</w>
ain ed</w>
emer gency</w>
Crim inal</w>
spéci fique</w>
approxim ately</w>
min ist
tr ouver
f um
ni ñas</w>
con vers
ges sen</w>
en ded</w>
Sec tion</w>
gew öh
acqu is</w>
residu os</w>
SI ON</w>
ä re</w>
órgan o</w>
gli che</w>
ko ordin
Tim or
ráp idamente</w>
efec tiva</w>
ex ecu
requ er
appu y
ho li
Ar ten</w>
z can</w>
collec tion</w>
C lu
du ty</w>
elec toral</w>
ocasi ones</w>
recogni tion</w>
F OR</w>
beh örde</w>
ajou ter</w>
spe ak</w>
è lement</w>
a e</w>
ün f
cer r
agra deci
Institu to</w>
tad ores</w>
Gre cia</w>
Dem ocratic</w>
competi tividad</w>
R estaur
vo to</w>
erhöh en</w>
segu irá</w>
ens ay
H altung</w>
conf idence</w>
proli fér
cr ire</w>
tiv eness</w>
scienti fiques</w>
Salu d</w>
innov ación</w>
è que</w>
du es</w>
circon stances</w>
ch efs</w>
el te</w>
é vi
Di enste</w>
gan zen</w>
EE .U
observ er</w>
lin gu
precis amente</w>
n de</w>
g ica</w>
équili bre</w>
Risi ken</w>
s ätz
genann t</w>
pl ena</w>
begrü ßen</w>
limit es</w>
trans mission</w>
P or</w>
vorläu fi
po dido</w>
Europ ol</w>
gl o</w>
ä ni
Nor men</w>
com man
parti dos</w>
o ther
ploy ment</w>
Er wer
transpar ente</w>
größ te</w>
cambi ar</w>
Char ter</w>
in sol
Dis krimin
Democr ática</w>
spä ter</w>
unter sucht</w>
pén al</w>
peti ts</w>
über haupt</w>
comp ter</w>
disc uss</w>
je w
zu gunsten</w>
contac to</w>
re tour</w>
rele ase</w>
L or
E as
wirtschaf ts
Ministr os</w>
Empfehl ung</w>
responsi bilities</w>
Canad á</w>
Kap az
usu arios</w>
s port</w>
ou bli
glob alen</w>
ill ég
Rum äni
v ent
g .</w>
enti al</w>
mu er
Sch wei
em issions</w>
pre ise</w>
hon or
3 7
Z immer</w>
signific antly</w>
recomman de</w>
sin n
tot alement</w>
ein ger
urg ente</w>
Nutz en</w>
ub ic
au tor</w>
Ab w
Ir án</w>
über mittelt</w>
off izi
accom mod
F rem
quar ters</w>
star ted</w>
dé part</w>
In halt</w>
al ter
I ch</w>
su ites</w>
im mun
Auf nahme</w>
bo ten</w>
religi ous</w>
psy chi
fa ir
ob tained</w>
Hin weis</w>
r enta
im pose</w>
über nehmen</w>
itä re</w>
lä gen</w>
a o</w>
sec ure</w>
on ie</w>
Finanz ierungs
wer k</w>
cultur es</w>
ológ icos</w>
o urs</w>
. 00</w>
Pol en</w>
desempeñ ar</w>
gew esen</w>
Be trag</w>
isi ble</w>
répon ses</w>
cam e</w>
mondi alisation</w>
zu legen</w>
pad res</w>
ß te</w>
o dos</w>
do or</w>
verm eiden</w>
err as</w>
om en
s ales</w>
Premi er</w>
Vene zu
ep h
b el</w>
stat tung</w>
vulner able</w>
beh ind</w>
po ids</w>
im puestos</w>
cons enti
sel s</w>
for ced</w>
Eur o-
C li
n º</w>
Mi ch
F ac
E st</w>
entschei d
Maastri cht</w>
de venir</w>
t ch
consi gn
P az</w>
S af
Berichterstat terin</w>
beteilig t</w>
tiv ität</w>
cu á
eil l
insur ance</w>
deut schen</w>
S il
uer to</w>
Flu gh
langu ages</w>
étran ger</w>
sign ature</w>
s ín
E lec
re tras
m ü
fron tali
concentr ation</w>
pho to
prolifér ation</w>
expor tations</w>
Ver ring
Ph ase</w>
20 14</w>
acep table</w>
Arznei mittel</w>
au ßer</w>
über w
o st
comunit arios</w>
priv aten</w>
re ality</w>
employe es</w>
atori os</w>
v istas</w>
C ity</w>
rappel er</w>
gl eiche</w>
s eh
fundam ent
pre dic
aus schließlich</w>
er y</w>
Hum an
A si
letz te</w>
al rede
augment é</w>
sec und
cle an</w>
poten cial</w>
erheb lich</w>
transi t</w>
St and</w>
k in
garant ías</w>
conna ître</w>
b ahn
pes qu
minor ités</w>
oll s</w>
verantwor tlich</w>
p ft</w>
mo tion</w>
consci ence</w>
th ous
achiev ing</w>
us os</w>
ungs ver
p si
AN D</w>
conna issances</w>
S im
Fé dération</w>
observ ed</w>
pa qu
Re is
id ge</w>
adv antage</w>
ban ks</w>
ap pl
consider o</w>
m ed</w>
f ehl
Ver gan
Gu atem
Par k</w>
confer encia</w>
à- dire</w>
lu z</w>
Vizepr ä
tribun aux</w>
ang t</w>
en contre</w>
efici encia</w>
posi tiva</w>
R ome</w>
ph én
n ten</w>
Reg uli
S us
statis tics</w>
han del</w>
ver folgen</w>
t él
bá si
hi bi
sist em
de main</w>
Sy m
Ne ther
un ité</w>
bab we</w>
ästin ens
canc er</w>
au ff
dig it
vi able</w>
gi es</w>
g ünsti
est- à-dire</w>
strateg ie</w>
perspec tivas</w>
i ons</w>
möglich st</w>
mor gen</w>
con nex
continu ar</w>
bil den</w>
commen cer</w>
deli very</w>
S ri</w>
equip os</w>
Technologi en</w>
ç ons</w>
v ont</w>
béné fic
str ong
distric t</w>
four ni</w>
habi taciones</w>
Untersch iede</w>
aff t</w>
prop er</w>
se ek</w>
cuo tas</w>
in ver
.h t
amen ded</w>
re chts</w>
mi tad</w>
se e
wel comed</w>
benefici o</w>
bi ais</w>
Um struktur
Administr ación</w>
gan ze</w>
dev ront</w>
ty p
Sor ge</w>
du le</w>
entfer nt</w>
Millenni um</w>
D V
favor is
Ban k
busin esses</w>
peac eful</w>
solidar ity</w>
es po
hier zu</w>
asi le</w>
bi er
a tamente</w>
hi ci
VI II</w>
lon gue</w>
con ocer</w>
tendr án</w>
h em
E duc
ack no
audi o
Com p
infr action</w>
be zug</w>
tt et</w>
s avons</w>
R ed</w>
T ai
concre te</w>
verb und
pobl aciones</w>
Durch führungs
sta dt</w>
contac ts</w>
na die</w>
v it
recor d</w>
lanc é</w>
en ken</w>
2. 1.
paragraph s</w>
b ation</w>
humani taires</w>
Risi ko</w>
econom ies</w>
mehr eren</w>
A .
Bi o
Statu s</w>
spä t
un employment</w>
condu ite</w>
mon et
B S
k am</w>
ständi gen</w>
Inter nationalen</w>
I F
utilis ées</w>
T age</w>
L iz
tâ ches</w>
natur elles</w>
in du
Ju gend
r as</w>
sob re
A mend
hin gewiesen</w>
ar abe</w>
ch st
Generalsekre tär</w>
car b
cli entes</w>
ho ch</w>
dis orders</w>
dem eure</w>
itali en
ten den
cinqu ante-
gui de</w>
sal ari
con tar</w>
pon en</w>
ander erseits</w>
Fäl le</w>
par a
gesch i
Mill énaire</w>
le ts</w>
Zi ffer</w>
inter ested</w>
fic aciones</w>
blo od</w>
recon oce</w>
wel comes</w>
soli di
speci fically</w>
Nether lands</w>
tex tes</w>
ab geschlossen</w>
conf identi
a ie</w>
pré h
Er höh
ayu dar
geleist et</w>
prolifer ación</w>
un id
recommand é</w>
L ank
B ir
l ate</w>
mon op
reco very</w>
UN O
Feder ation</w>
UN F
an gew
expres ión</w>
wirk lichung</w>
Vergan genheit</w>
ven ant</w>
Mid dle</w>
un bedingt</w>
é car
comerci alización</w>
éx ico</w>
éta pe</w>
des apar
pour ront</w>
in jur
selec ted</w>
tabl ement</w>
fortale cimiento</w>
di r
al mac
befür wor
trei ben</w>
au quel</w>
gen utzt</w>
T ro
men tado</w>
lan dia</w>
er ungen</w>
m ass</w>
H and
ám ica</w>
P la
Ma cht</w>
áre as</w>
pac ífic
Beruf s
str ö
tel l</w>
perí odos</w>
net works</w>
scienti fique</w>
E isen
lan gue</w>
infl ation</w>
S R
Feder ación</w>
Pe op
Gre ece</w>
pério di
ass ure</w>
cur sos</w>
tri al</w>
construc tive</w>
larg est</w>
considér é</w>
mi lieu</w>
ar los</w>
señ ala</w>
EE.U U.</w>
génér ales</w>
cifr as</w>
plen o</w>
dat ée</w>
Pay s-
sign al
règ le</w>
E ta
sur g
P ME</w>
pérdi da</w>
lu char</w>
deten ción</w>
vir tu
e um</w>
do is</w>
bien estar</w>
ext érieur</w>
Koh ä
lec ture</w>
J ur
M éxico</w>
ba th
Pol ítica</w>
zustim men</w>
lich keiten</w>
hör en</w>
vari ety</w>
ó vi
Verring erung</w>
inmedi atamente</w>
dé g
jün gsten</w>
Protec tion</w>
orienta tions</w>
Kl ein
L ES</w>
ger echt</w>
a tribu
min orías</w>
ple as
emple ados</w>
unmittel bar</w>
Palest ine</w>
Gin ebra</w>
T agen</w>
plan o</w>
Überein kommens</w>
äu ß
dar stellen</w>
ci ties</w>
betra chtet</w>
än derung</w>
alis me</w>
de terior
én or
v an
beg in</w>
künf tig</w>
public ación</w>
zwei f
is men</w>
al em</w>
geteil t</w>
re ti
Kor ea</w>
clos ed</w>
res to</w>
b ai
l le
ul t
di en
propri été</w>
bas ada</w>
B raz
geb aut</w>
AC .
de aling</w>
ç ant</w>
Klima w
ras ch</w>
ei le</w>
au- delà</w>
aplic a</w>
Vorbereit ung</w>
compar ación</w>
indic ators</w>
categ orías</w>
pron to</w>
oc k</w>
finan ces</w>
impor tación</w>
ver w
ei s</w>
Banglad esh</w>
Produ ktions
Ser bia</w>
fáci l</w>
reci entes</w>
Mic ro
chan ces</w>
ab ge
mögli che</w>
Pays- Bas</w>
t le</w>
rec ettes</w>
approv isi
olog ne</w>
bi bli
concre to</w>
Dec ision</w>
gé ographi
someti mes</w>
de ur</w>
cul p
St äd
mögli chen</w>
N AT
ple in</w>
co hesión</w>
Ac cord</w>
si glo</w>
eng er</w>
K un
cu y
bre v
spezif ischen</w>
aus gewo
Gipf el</w>
ar la</w>
Syst eme</w>
v amos</w>
b ung</w>
xi èmement</w>
ati schen</w>
eb o
fon dée</w>
I D
us s
B asis</w>
bl er</w>
catég ories</w>
cl ass</w>
Mu j
elec tion</w>
NG Os</w>
si cht
cuar to</w>
on y</w>
be zogen</w>
Ver wirklichung</w>
Mitgliedsta ats</w>
indus tries</w>
espér ons</w>
ear lier</w>
cri tic
ö k
m ass
internation aler</w>
bar er</w>
erfol grei
Eng agement</w>
am i</w>
Medi terran
preven ir</w>
des as
form at</w>
le tra</w>
trag ung</w>
Dar fur</w>
aur aient</w>
bien io</w>
reduc ing</w>
Environ ment</w>
aj us
th r
memb ership</w>
Al to</w>
moder ne</w>
zahl t</w>
ne as</w>
tr ust</w>
san i
r aten</w>
Mär kte</w>
competi tive</w>
organ ismo</w>
other wise</w>
R oh
permet tent</w>
viol ación</w>
Do ha</w>
gl ement</w>
ge fördert</w>
erleich tern</w>
rais onn
at eli
M usi
er geben</w>
juris dic
vra i</w>
k ti
por teurs</w>
anim als</w>
revis ed</w>
pro te
Po ten
Luxembur g</w>
s embl
destruc ción</w>
amerikan ischen</w>
di fusión</w>
f a</w>
certain ement</w>
r ation
res um
erzi elen</w>
deli ver
op ening</w>
C. 3</w>
exp ir
destin ados</w>
jew eils</w>
ex ist</w>
V A</w>
gas to</w>
alco hol</w>
F .
agricul tores</w>
durch schnit
Wieder auf
ing .com</w>
ar di
e en</w>
cons eils</w>
ter ap
Wachst ums
grei fen</w>
permette z-moi</w>
ouv re</w>
A P</w>
perfec t</w>
ci-des sus</w>
om as</w>
ge fordert</w>
4 5
ver folgt</w>
unf ts
canti dades</w>
señal ó</w>
a ded</w>
al ter</w>
Venezu ela</w>
Q </w>
fäl len</w>
i rement</w>
éc ou
M ONU
cour ts</w>
ergän z
Stand ards</w>
ac eler
B él
Sch weden</w>
izi enz</w>
In st
réserv es</w>
t arios</w>
só li
inclu yen</w>
pág ina</w>
contra dic
Con trol</w>
preg n
N iv
französ ischen</w>
lin ked</w>
i x
acc él
Part ei</w>
Pro di</w>
da ños</w>
E mb
w esen</w>
t ítulo</w>
raci al</w>
for z
s ätzen</w>
S TA
id ance</w>
ver gessen</w>
ap ertura</w>
end lich</w>
ac ement</w>
vorsch lag</w>
pour suiv
R en
car di
Bo ok
té mo
saf egu
wor ld
certa ine</w>
Inter ven
sign é</w>
ger ne</w>
é ens</w>
9 .</w>
próxim os</w>
vehic les</w>
j i</w>
de lic
sol cher</w>
v illes</w>
enter prises</w>
lo ur
réparti tion</w>
alloc ation</w>
di v
Slo v
f el</w>
Einfu hr
lei cht</w>
ten ant</w>
sob er
C. 2</w>
isti que</w>
er öff
Ma ße</w>
Dok ument</w>
b onnes</w>
peac ekeeping</w>
aprovech ar</w>
as h
proch ain</w>
K ateg
ab sich
Su per
contra tación</w>
par am
términ o</w>
Ar g
umfass ende</w>
MI S
W are</w>
min as</w>
inter no</w>
3 6
fic ados</w>
ol ér
W ill
v ing
E X
e .</w>
pendi entes</w>
D än
w om
th ème</w>
rah men</w>
Kin der
mundi ales</w>
n ice</w>
comprom ise</w>
premi ères</w>
jo int
cin qui
s enci
Vereinbar ungen</w>
ish es</w>
d ul
arm és</w>
aur ont</w>
C NU
fourn is
ig ent
re di
ver li
pol y
respec tive</w>
ci da</w>
suministr o</w>
gewöh n
élimin er</w>
e ar</w>
tt on</w>
as sum
K ro
monit or</w>
estableci dos</w>
específic os</w>
clu b</w>
pay ments</w>
re ve
Bra sil</w>
fur n
gr e</w>
sum a</w>
asi lo</w>
feder al</w>
D '</w>
j er
gan gs</w>
lig t</w>
f und</w>
aplic ables</w>
Afr ika</w>
man ie</w>
M el
substanti al</w>
inde x</w>
wettbewer bs
be absich
he ard</w>
th è
dru gs</w>
capaci dades</w>
á li
ver sucht</w>
especi es</w>
stoff en</w>
hän gt</w>
budg etary</w>
wei ght</w>
brit án
esper ar</w>
acti tud</w>
ätz ung</w>
e za</w>
W il
cuesti on
Währ ung</w>
le hen</w>
Viel falt</w>
. B.</w>
intermédi aire</w>
pen al
cur red</w>
Sach ver
record ar</w>
U L
zu kommen</w>
impul s
pa th
spät estens</w>
lum ière</w>
therap ie</w>
verkehr s</w>
h í
al leg
expli ci
invol ving</w>
F OR
ver sammlung</w>
C P</w>
ver tret
natur almente</w>
1, 5</w>
gr enzen</w>
obstá culos</w>
Joh n</w>
gen er</w>
re peti
sich ts
Ban ken</w>
ráp ida</w>
regis tered</w>
Guatem ala</w>
ó leo</w>
lí mite</w>
l ück
Besch luß</w>
bro ad</w>
creci ente</w>
farm ers</w>
arm ados</w>
sch wer</w>
visi te</w>
pe ux</w>
he av
read ing</w>
laun ched</w>
hil fen</w>
bas ado</w>
E igent
continu ent</w>
z .</w>
Du bl
gesetz ten</w>
Ausfu hr
europa. eu</w>
hin weisen</w>
Tit el</w>
su prim
start ing</w>
isti sche</w>
in yec
f it
el ement</w>
ton el
w est
un less</w>
N O
Mediterran ean</w>
ta ba</w>
contr ats</w>
c enter</w>
ban o</w>
Sch o
opini ons</w>
ass ets</w>
elec ted</w>
suscepti bles</w>
finan cer</w>
m us</w>
tend ance</w>
vill age</w>
Trans port</w>
i des</w>
at l
bes itz
l ess
tas ks</w>
d ation</w>
immedi ate</w>
EURO P
st off</w>
bi d</w>
ex posición</w>
er er</w>
deu xièmement</w>
v eg
é s
tab ly</w>
í rit
überzeu gt</w>
ad quisi
Ob ama</w>
ampli ar</w>
Wirtschafts zwei
der n
es tiv
h eri
RE S</w>
franç ais</w>
estructur ales</w>
alis ts</w>
zeu gen</w>
transfer encia</w>
wal k</w>
li gence</w>
unabhängi g</w>
cl á
engag er</w>
unter str
power s</w>
sid ent
Brus elas</w>
territ oires</w>
expor taciones</w>
gen ü
ru bri
aussch uß</w>
cata stroph
Com erci
Sank tionen</w>
Erhöh ung</w>
crimin alité</w>
Ges ell
eta pa</w>
s ation</w>
determin ation</w>
exper tise</w>
tier ra</w>
pertin ente</w>
accomp lis</w>
L eu
fiel ds</w>
envis ager</w>
on s
phén om
L í
di gt</w>
in vo
précéd ent</w>
hum ain</w>
ange wendet</w>
tax es</w>
a id
par king</w>
compl y</w>
Ambi ente</w>
hu ge</w>
su ces
atten d</w>
al p
statisti que</w>
y outh</w>
activ ement</w>
Al tern
angeh ö
M et
en vo
ten us</w>
pa ign</w>
dat s</w>
mar ítim
puis que</w>
b it</w>
et ed</w>
som os</w>
interes adas</w>
potenti el</w>
anz as</w>
lí mites</w>
s alle</w>
wur f</w>
---- ----
DI E</w>
observ ación</w>
sob ald</w>
dise ases</w>
jo in</w>
o la</w>
acces sible</w>
gr ati
zei chen</w>
vo il
U cr
sensi ble</w>
satelli te</w>
Lank a</w>
dür fte</w>
re flexi
N ah
ver lang
trans formation</w>
inclu sión</w>
Les ung</w>
3 8
P acte</w>
Fortschrit t</w>
respon d</w>
précis ément</w>
eb ene</w>
déc isi
H off
A g
ta liz
1 1
numer ous</w>
degre e</w>
cr ític
destin ées</w>
exces iv
bili zación</w>
b ac
for d</w>
recev oir</w>
siè cle</w>
fü ll
as isti
bi ennal</w>
invol vement</w>
w are</w>
ex hor
aliment aria</w>
z ieren</w>
10 -
k aum</w>
soci edades</w>
v ín
Ko oper
be trä
ter ing</w>
institu ción</w>
genu g</w>
m onn
tercer a</w>
eg elt</w>
commen cé</w>
dar aus</w>
Prior ität</w>
um -
an i</w>
E tat</w>
ph en
A le
proven ant</w>
verwen den</w>
I X</w>
ta des</w>
Dim ension</w>
dis cre
resour ce</w>
cre emos</w>
K az
do unid
mag n
decidi ó</w>
E lek
hubi era</w>
w it
on cer</w>
Ucr ania</w>
schlä gt</w>
déploy és</w>
Res earch</w>
Po liz
vol ver</w>
Wirk samkeit</w>
su ger
def ence</w>
führ er</w>
im per
an teriormente</w>
incre ment
convain c
Mo y
equili br
y cl
ati es</w>
gen re</w>
attack s</w>
Ken ya</w>
enor m
Servici o</w>
Tier e</w>
fr ut
Schi ff
Über gangs
compet ente</w>
inter nos</w>
esper anza</w>
expan sion</w>
mir as</w>
én onc
estim é</w>
Journ al</w>
g st</w>
repercu siones</w>
réguli èrement</w>
- à-
cli matique</w>
verstär kt</w>
év olu
en l
unterschied lichen</w>
es es</w>
ier ter</w>
pré sta
ho ffen</w>
Belgi que</w>
ré ellement</w>
J os
all á</w>
ir i
préoccup ation</w>
spe ed</w>
per tes</w>
pres que</w>
Ther ap
g a
ens es</w>
197 9</w>
peri odo</w>
fem ale</w>
he ad</w>
rän kungen</w>
stell te</w>
Spe zi
concl ure</w>
Leg isl
n ungen</w>
Chin ese</w>
banc os</w>
h ep
Besch lüsse</w>
írit u</w>
ap pointed</w>
affec t</w>
pré fér
fir me</w>
our able</w>
grund sätz
li bres</w>
un sch</w>
offr ir</w>
ci dos</w>
defin e</w>
2. 1</w>
w r
lan des
Untersuch ungen</w>
jur i
komm unik
op ping</w>
esta dounid
ba isse</w>
sep t</w>
vorzu legen</w>
exécu tif</w>
AC NU
rup tion</w>
ech ischen</w>
es ión</w>
Investi g
ver dad</w>
ti k</w>
popul aire</w>
I .
prev istos</w>
teil weise</w>
sym ptom
AN S</w>
a sion</w>
cham p</w>
ern sth
zuständi g</w>
angemess ene</w>
llam amiento</w>
re mb
ag ent</w>
Veröffent lichung</w>
accu eil</w>
si ete</w>
anu ales</w>
évi demment</w>
enti èrement</w>
Braz il</w>
inform </w>
occid ental</w>
T onnen</w>
Men gen</w>
it -
V .</w>
iz ed</w>
nom in
ati k</w>
ge wal
ch ing</w>
arr êt</w>
re fer</w>
pl ur
3 9
cier tos</w>
tour n
akzep tieren</w>
ven cia</w>
an aliz
la it</w>
av ir</w>
neu es</w>
ag ues</w>
infer ior</w>
As sozi
198 2</w>
effic acement</w>
est ará</w>
man os</w>
le uni
hos pit
kl are</w>
dar y</w>
erh af
ü hren</w>
end rait</w>
Tel e
aci o</w>
chim iques</w>
spezif ische</w>
exer cer</w>
shi p
cost os</w>
acti fs</w>
év idence</w>
al ismo</w>
Dienst leistungs
déf i</w>
re ly</w>
posi ciones</w>
entsch ieden</w>
shar ed</w>
Lat in</w>
posi tiv</w>
ag ency</w>
ut in</w>
All gem
é cl
celebr ar</w>
A S
198 3</w>
wir kt</w>
Industri e
f eu
erinner n</w>
tin e</w>
ein gehen</w>
celebr ación</w>
dr ome</w>
wer k
Quali täts
wh om</w>
För der
princip ale</w>
gelö st</w>
U n</w>
derar tige</w>
3 4
wirtschaf tlicher</w>
t un
wirk sam</w>
Chil dren</w>
ap point
norm ativa</w>
beg innen</w>
ológ icas</w>
secon dly</w>
pas ar</w>
er ie</w>
ter re</w>
A T</w>
finanz iert</w>
remb our
absol ument</w>
Auf bau</w>
Rè glement</w>
eu x
graph ic</w>
mar y</w>
ar ro
200 6-
di ab
For derung</w>
suggest ed</w>
psych ological</w>
organis ée</w>
Ne w
easi ly</w>
Ver fassung</w>
é rés</w>
emer gencia</w>
speak ing</w>
l ob
lo cu
Sto ffe</w>
erwäh nt</w>
w ak
usu ally</w>
ré per
quo tas</w>
L ei
Zu sch
off en</w>
organis me</w>
dem eur
u fen</w>
Ori ental</w>
ent weder</w>
destin o</w>
Un abhängi
super vision</w>
O TA
omm enen</w>
sta de</w>
re mun
employ ed</w>
ést os</w>
LA F</w>
técn icos</w>
gro unds</w>
sub stan
bas a</w>
ac tors</w>
is é</w>
us ch</w>
car re
p hr
ce -
gesta ttet</w>
ab gel
Bed enken</w>
palestini en</w>
Su ède</w>
enst and</w>
M ulti
bu ds
ir ía</w>
en der
Organ e</w>
hol ding</w>
zeichn eten</w>
esp agno
próxim a</w>
qu en</w>
exprim é</w>
ran gi
regre t
règl ements</w>
charg ée</w>
contribu é</w>
ro und</w>
lec tura</w>
Book ing.com</w>
quali tät</w>
exten ded</w>
res ter</w>
vi al</w>
ss er</w>
cu la</w>
es enciales</w>
commerci aux</w>
Sto ck
preocup aciones</w>
as a</w>
numer osos</w>
concr ètes</w>
comp ag
excep ción</w>
traff ic</w>
industri elle</w>
C .1</w>
prepar e</w>
angem essen</w>
hes ion</w>
h onn
Chr isti
bien ni
inmigr ación</w>
public ations</w>
pedi do</w>
independ ence</w>
ter res
pr ou
s ale</w>
Eur at
remun er
M art
de par
program s</w>
h all
Be am
ad ing</w>
pl ä
ad m
deci r
trouv ent</w>
pour centage</w>
begr ün
J O</w>
world wide</w>
B ran
alis tes</w>
ter ri
fin e</w>
ak tiv</w>
K ab
Erfahr ung</w>
konzentri eren</w>
extranj eros</w>
Ben utz
legi tim
prop ósito</w>
C ul
Be fu
Dro gen
Me eting</w>
gu est</w>
as si
be ach</w>
fac ing</w>
sig a</w>
sur face</w>
su spec
restaur ants</w>
inform é</w>
técn ico</w>
bl anc
vo ter</w>
treat y</w>
weiter er</w>
fic ada</w>
er o
AB l</w>
Ad visory</w>
Baj os</w>
observ a</w>
dirig entes</w>
enter ed</w>
en car
lok alen</w>
op ción</w>
se ven</w>
numer osas</w>
re present</w>
198 1</w>
étro ite</w>
wissen schaftlichen</w>
secon da
four th</w>
all í</w>
mo tor</w>
mu sul
ver trau
en so</w>
introdu ce</w>
hospi tal</w>
represent ed</w>
susp ension</w>
BE I</w>
quali fiz
dis tan
b arr
D F</w>
b all</w>
U ganda</w>
targ ets</w>
provin ce</w>
am ar
sicher lich</w>
nied ri
collè gue</w>
de urs</w>
gest ützt</w>
accid ents</w>
human itäre</w>
Rumäni en</w>
Aus nahme</w>
entrepr en
recon ocer</w>
organis er</w>
Harmon isierung</w>
présent és</w>
pron unci
simil ares</w>
progr essi
B lick</w>
geh ö
enti er</w>
säm tliche</w>
Verhäl tnis</w>
ari ats</w>
Doll ar</w>
conta in</w>
res ser</w>
amer ic
pi dió</w>
erl ei</w>
los t</w>
einschlä gigen</w>
territori os</w>
Indi en</w>
In kraft
r á</w>
fin dings</w>
esp íritu</w>
E gyp
vor genommen</w>
R ed
ei dung</w>
Heraus forderung</w>
th in
protec ted</w>
mens aje</w>
vo y</w>
beein träch
foc used</w>
stoc k</w>
C z
z co</w>
ex -
selec tion</w>
su ici
Tran si
A tom
Commun ic
car te</w>
chang er</w>
ref us
agricul teurs</w>
dr á</w>
sor t</w>
mo iti
p ido</w>
alrede dor</w>
confer encias</w>
de grad
afric aine</w>
ver gleich
e et</w>
minu tos</w>
h l
ah or
s ho
resul ting</w>
Com ision
infanti l</w>
-à- vis</w>
y u
recht liche</w>
aufge fordert</w>
lear n</w>
strong ly</w>
R adi
9 00</w>
Er k
situ é</w>
Secretar y</w>
rich tige</w>
sub stitu
vis -à-vis</w>
bei zu
que te</w>
cust oms</w>
Div isión</w>
prim eros</w>
erwart et</w>
qu il
E M</w>
categ ory</w>
gegenwär tigen</w>
venta jas</w>
Comerci o</w>
Brus sels</w>
br in
id ées</w>
h ou
deb ía</w>
ACI ÓN</w>
For derungen</w>
ori a</w>
C at
produ cido</w>
hin ter</w>
avanz ar</w>
prim or
párraf os</w>
Agen cia</w>
nav ires</w>
équi table</w>
l la</w>
con nu</w>
pré voir</w>
Bus iness</w>
US D</w>
an genen</w>
im puesto</w>
rele ver</w>
ran g</w>
Gl au
moiti é</w>
Cor ea</w>
cer a</w>
ć </w>
Lt d</w>
G DP</w>
vo tar</w>
f ish</w>
ter res</w>
conclu ir</w>
For o</w>
législ atives</w>
B .
h es</w>
re presents</w>
bes ei
bo x</w>
as su
l auf</w>
ci to</w>
co gni
M O</w>
re placed</w>
res tent</w>
capi taux</w>
plante a</w>
Strateg ien</w>
mu tz
work ed</w>
Geb äu
ur teilung</w>
tend encia</w>
Am t</w>
conta ining</w>
ko sten
isl and</w>
petr óleo</w>
quanti té</w>
ü ben</w>
é gi
ri v
gen ie
competi tiveness</w>
represent an</w>
appe al</w>
fre ue</w>
austa usch</w>
adolesc entes</w>
O sten</w>
ar é</w>
fi ant</w>
sym bo
poten zi
ernsth af
n etz
gesch ehen</w>
pr ed
analy ses</w>
Ver träge</w>
isch en
auf zunehmen</w>
be ziehung</w>
appro bation</w>
prop ias</w>
de voir</w>
J ac
R os
geo gráfic
Aktions plan</w>
eur o
30 .</w>
fe u</w>
bew eg
form ulation</w>
in com
Cam bo
di eron</w>
po cos</w>
z z
b and</w>
abier to</w>
sexu elle</w>
cinqui ème</w>
actu elles</w>
afir ma</w>
Abge ordnete</w>
5 000</w>
fam ous</w>
baj a</w>
e jec
confirm ed</w>
char ac
an o
Wor te</w>
li t</w>
Q U
Aspe kt</w>
con dem
Moy en-
gesell schaften</w>
port ées</w>
donn ée</w>
v ues</w>
vi ven</w>
direc teur</w>
essenti els</w>
sch eme</w>
ä fen</w>
ör ungen</w>
estr echa</w>
ob tain</w>
cr its</w>
Fre iz
appropri ées</w>
H aut</w>
energ ética</w>
empres ari
Sud an</w>
entr eti
For m
cli mat</w>
adv ice</w>
ta ins</w>
reflec t</w>
recur so</w>
deci dido</w>
catastroph es</w>
ju ego</w>
introdu cir</w>
w ann</w>
afec ta</w>
se urop
z .B.</w>
concern é</w>
a dic
áre a</w>
accoun ts</w>
concep tion</w>
rei cht</w>
ré mun
Zy per
re prise</w>
mo ts</w>
parti s</w>
c eux
inv ent
richt linie</w>
frei heit</w>
the or
ju ge</w>
jurídic os</w>
weit en</w>
négoci ation</w>
Zwei fel</w>
Unternehmen s
sac ri
á s
rel ax
pr ensa</w>
spr u
conv oc
W asser</w>
essenti elle</w>
D in
Con tr
back ground</w>
pos teriormente</w>
P Y
vo ting</w>
dimen sión</w>
seul s</w>
bili täts
y l</w>
ciud ades</w>
rus s
U ru
vor legen</w>
Gr an</w>
si ège</w>
mag istr
bit ten</w>
infr actions</w>
er stat
am entary</w>
o cho</w>
di ty</w>
post s</w>
parlementa ire</w>
Reg el</w>
consci ente</w>
S at
terr áne
vis ual</w>
bor ders</w>
intégr er</w>
differ ence</w>
Me er
incre mento</w>
ar ischen</w>
ac tif</w>
negoci ación</w>
bewus st</w>
ander es</w>
tour isme</w>
infec tion</w>
J .</w>
plann ed</w>
recon nu</w>
erfol greich</w>
vi </w>
legi ti
Li br
erheb liche</w>
1 30</w>
volun tary</w>
r ar
instruc tions</w>
atmosp here</w>
ab og
at ar</w>
noti ce</w>
An exo</w>
ill ustr
s agt</w>
Verk ehr
pens ons</w>
modific aciones</w>
jus to</w>
ill ing</w>
g ei
tw ent
Tai w
Bes or
máxim a</w>
modi fié</w>
Vertragspart eien</w>
em ia</w>
sh ort
au lt</w>
de vi
ne ws</w>
2, 5</w>
é u
e au
un it</w>
zi pi
destin adas</w>
wi der</w>
pouv ait</w>
inter locu
be ziehungen</w>
s auv
offici el</w>
kontr olle</w>
Sta d
produ ire</w>
Re de</w>
categ ories</w>
ons- nous</w>
ru hi
M ah
voil à</w>
hu it</w>
tz u
remain ed</w>
sch lagen</w>
ases oramiento</w>
op ened</w>
Com pu
Kooper ations
w ai
emb ol
declar ation</w>
des wegen</w>
fronti ère</w>
í do</w>
umfass t</w>
OTA N</w>
lich em</w>
te es</w>
Feh ler</w>
betro ffen</w>
los en</w>
an ese</w>
mutu al</w>
montr er</w>
inter fer
accommod ation</w>
unver züglich</w>
coment arios</w>
me ta
re mi
distinc tion</w>
sta at</w>
fau dra</w>
Urspr ung</w>
s ports</w>
o ficina</w>
I R
consolid ación</w>
Zahl en</w>
cour ses</w>
liber tés</w>
ra ise</w>
utilis ateurs</w>
gener ation</w>
pléni ère</w>
s ach
o xi
cam paign</w>
mark t
caractér istiques</w>
erhöh t</w>
P L
vis a</w>
un its</w>
ten e
Diskrimin ierung</w>
exclusi v
leg ítim
ejec ut
N eben
sch rit
nachhal tigen</w>
ac compl
Moyen- Orient</w>
erneu er
character istics</w>
registr ation</w>
Sud án</w>
ONU DI</w>
pres entes</w>
activ amente</w>
ordn ungen</w>
eb t</w>
congratul ate</w>
G ali
St unden</w>
efec tivo</w>
ap parten
alisi ert</w>
Gr an
our selves</w>
Leist ungs
herr ami
rec ti
ei gh
restric ciones</w>
Se e</w>
min eurs</w>
A SE
zei traum</w>
ri gh
stoc k
be trag</w>
Palest ina</w>
sig n</w>
ad judic
Or d
explo si
logr o</w>
Program m
depen de</w>
renfor c
Rech ts</w>
for c
en voy
comm is</w>
unterschied liche</w>
extr a</w>
ori en</w>
aco ge</w>
Ger ä
Ver halten
E strateg
F lor
t aria</w>
subven tions</w>
Defin ition</w>
interven ciones</w>
Betri eb</w>
Chr ist
eig nete</w>
h .</w>
fig ures</w>
man gel
Medi en</w>
a ises</w>
kl in
bec ame</w>
Uru gu
ceux -ci</w>
contr ols</w>
hac erse</w>
wirk same</w>
öß e</w>
fil m</w>
Pres u
compl et</w>
10 ,
sk o
conform es</w>
hos t</w>
lin ge</w>
hau te</w>
previ a</w>
particuli ers</w>
pérdi das</w>
j ing</w>
er teilt</w>
grou p
histor ical</w>
minu te</w>
dar unter</w>
appli quent</w>
for est</w>
refle j
Kom pet
re tar
be trägt</w>
e th</w>
modific ar</w>
pl ants</w>
inform ar</w>
parten ariats</w>
utiliz ado</w>
T ok
fif ty-
met tent</w>
celebr ó</w>
compon ents</w>
Me dic
ein te</w>
adel an
a fron
Struktur fonds</w>
2002- 2003</w>
accor dée</w>
pro che</w>
Eff izienz</w>
ausreich end</w>
adecu adas</w>
ta bility</w>
Ih rem</w>
L as
kon struk
ent endre</w>
Einfl uss</w>
um t</w>
re présenta
S S
im pedir</w>
Vorsch lags</w>
è les</w>
questi onnaire</w>
pai ements</w>
exten sive</w>
Guin ea</w>
er griffen</w>
decisi on-
spéci ales</w>
rec rut
15 .</w>
dra f
accord ingly</w>
Schl üssel
consider amos</w>
p t</w>
er land</w>
col ega</w>
Pop ular</w>
dan ach</w>
fre ie</w>
sever e</w>
en ver
nutri tion</w>
all ou
Minis ters</w>
embar az
consta ter</w>
5- 0
permit a</w>
ú s</w>
pr ennent</w>
be fassen</w>
De bian</w>
conten ant</w>
. europa.eu</w>
dou ani
Hinter grund</w>
pouv ant</w>
agn ós
besser en</w>
si eren</w>
edi fici
du plic
t fer
Techn ologie</w>
ach t
quo te</w>
k am
alimen tation</w>
di um</w>
Ni ch
st ens</w>
hel p
b ly</w>
0, 5</w>
erforder t</w>
reconna ître</w>
Einw ander
a qui
Bestand teil</w>
ec es</w>
haup tsäch
ec kt</w>
mittel s</w>
Bestimm ung</w>
ob ili
ig keit</w>
pour suite</w>
hous ing</w>
Emis sionen</w>
Zus atz
st ets</w>
Ak te
onn er</w>
qu are</w>
v il
aktu ellen</w>
behavi or</w>
äl fte</w>
Gemein schaft
limit er</w>
Itali an</w>
op ciones</w>
élev és</w>
pass age</w>
t um
sett lement</w>
Vorsch lägen</w>
esta tales</w>
Ö l
Bo li
ä ger</w>
Y ou
fün f
Einfu hr</w>
Zw ecke</w>
concre tos</w>
bu enas</w>
ehol ders</w>
beteilig ten</w>
bl att</w>
expec t</w>
e cia</w>
im plan
aim erais</w>
sex e</w>
adu an
no té</w>
fiz iert</w>
figur ent</w>
A l</w>
pa quete</w>
Ar ch
hän gen</w>
affir me</w>
Bedar f</w>
octro i</w>
relativ ement</w>
génér aux</w>
éché ant</w>
s ü
Geg enstand</w>
tar án</w>
demand s</w>
L OS</w>
an dia</w>
ständi g</w>
Infrastr uktur</w>
Rel aciones</w>
Pol and</w>
épo que</w>
stim me</w>
ol vid
mom entos</w>
A chtung</w>
adv ance</w>
Pu e
ass ess</w>
G R
we ak
integr al</w>
S weden</w>
depend ent</w>
enregistr ement</w>
cham bre</w>
air port</w>
Sof tware</w>
bre ve</w>
Zahl ungen</w>
Fle xi
cier tas</w>
parti do</w>
{ </w>
O -
An trag
Co operación</w>
produc ers</w>
Direc teur</w>
D G</w>
r os</w>
c af
OS CE</w>
MONU C</w>
rap porteurs</w>
t ing
v .</w>
untern ommen</w>
considér ablement</w>
num bers</w>
alcanz ado</w>
ata ques</w>
i b
B I
per mis
h aushal
Mitgli edern</w>
dec kt</w>
Bemerk ungen</w>
compon entes</w>
i i</w>
Pro vin
de por
sou lev
Sek toren</w>
avail ability</w>
prév us</w>
segur os</w>
Ver anst
metho d
impos ed</w>
zu gän
B ü
ré sol
electrón ico</w>
fü gen</w>
inter gouvernem
Estrateg ia</w>
Ver fahrens</w>
b ús
confér ences</w>
fix é</w>
democr ático</w>
umwel t
atori as</w>
v ollen</w>
inv ited</w>
pl or
h und
o dy</w>
sé min
Mon tene
oph ob
norm a</w>
p ill
bor n</w>
as yl
Inform ation
Balk ans</w>
intitul é</w>
i tal</w>
un eingeschrän
sei en</w>
A h
ge tr
cor to</w>
adv oc
isch em</w>
tad or</w>
wirk ung</w>
demokrati sche</w>
felici tar</w>
présent ées</w>
su jets</w>
trait ements</w>
aprob ar</w>
l ass
ch ann
conjun ta</w>
difer ente</w>
Agrar politik</w>
h ung</w>
il l</w>
Dar lehen</w>
ei ght</w>
apr endi
li que</w>
posi tif</w>
intern es</w>
A sh
approvisi onnement</w>
limit ée</w>
for êts</w>
M ess
r s</w>
p ier
Entschließungsan trag</w>
diagno s
der a</w>
fen ó
commen taires</w>
alis te</w>
dou bt</w>
durch aus</w>
desta car</w>
sicher stellen</w>
ne z</w>
j enigen</w>
bet onen</w>
palestin o</w>
umfass enden</w>
medi zin
Kri eg</w>
Auth ority</w>
d oble</w>
diskuti ert</w>
B ou
curren cy</w>
S ir
gar de</w>
mar ri
utiliz ando</w>
no tion</w>
almac en
th ers</w>
Leist ungen</w>
10 5</w>
di agnós
Jo int</w>
Zahl ungs
res umen</w>
perform ed</w>
is o
1 10</w>
Hin der
c ens
Kon tin
H a
decidi r</w>
activ ely</w>
ff s</w>
Bei jing</w>
neh mern</w>
ber eiche</w>
ach ev
G est
lin ed</w>
An lage</w>
ho fs</w>
le ver</w>
indemni zación</w>
crit es</w>
rapi d</w>
re to</w>
h ará</w>
di vision</w>
pré judice</w>
Timor -L
Lin ux</w>
bes u
c ódigo</w>
mor ning</w>
sé v
esta dos</w>
Erklär ungen</w>
12 ,
lim its</w>
trau ms</w>
I -
h oc</w>
Po st
ni er</w>
li ger
L iv
anerk annt</w>
Doc um
alis ed</w>
Á r
ein iger</w>
contr acts</w>
direc te</w>
Metho den</w>
pres crip
F ang
so ver
sub si
con stan
Voraus setzung</w>
Kohä sions
1. 1</w>
par cial</w>
fondam ental</w>
fix ed</w>
P V
Joh ann
H .</w>
ma ßen</w>
schwieri g</w>
be ur
cu is
conver tir
taus ch</w>
1 1.</w>
drit ten</w>
V ide
e is
col or</w>
Au tri
é cole</w>
model s</w>
üc ke</w>
cher ch
multi -
lei hen</w>
port és</w>
Grün dung</w>
ho tels</w>
auf merk
ag grav
ob ra</w>
■ </w>
help ful</w>
Dän emark</w>
go es</w>
Bei träge</w>
c s</w>
Fak toren</w>
mäß ig</w>
è tement</w>
Ver lus
Binnenmark tes</w>
offensi chtlich</w>
considér able</w>
trabaj ando</w>
S V</w>
representa ción</w>
encourag ed</w>
sug ges
utiliz a</w>
lauf enden</w>
cell es
per te</w>
uti les</w>
reco g
vel ar</w>
fest stellen</w>
U C
zul ässi
D om
Kon g</w>
vis ita</w>
P MA</w>
Liber alisierung</w>
einzel staatlichen</w>
K OM</w>
Mar co</w>
N ä
re tos</w>
histori que</w>
Ho tels</w>
appro aches</w>
aprob ada</w>
ge eignete</w>
J an
benö tigen</w>
il lez</w>
sex </w>
Un gar
N ep
emph asis</w>
sec tions</w>
considér er</w>
th ought</w>
chap ter</w>
te z</w>
sub jects</w>
nei ther</w>
ish ment</w>
n ommen</w>
pass en</w>
presenta tion</w>
OC DE</w>
ad vers
Luft fahr
al ed</w>
stim mi
contamin ación</w>
Rap port</w>
Sch ä
ocup ación</w>
mo t</w>
presenta das</w>
fi able</w>
on ar</w>
func tioning</w>
demuestr a</w>
calend rier</w>
tor ía</w>
déta il</w>
Bes ei
des tro
bu ques</w>
fran ces
hu bo</w>
destin é</w>
Ch ance</w>
intel lig
G ebr
prem iers</w>
tion ne</w>
Be zu
g -
zusätz lich</w>
vulnér ables</w>
Pr ime</w>
aus län
inci den
Europä er</w>
all ég
sur vey</w>
p ese</w>
ni a</w>
Timor-L este</w>
men ée</w>
S ea</w>
tran seurop
au mentado</w>
fish eries</w>
abor der</w>
cos to</w>
im pression</w>
C F
ad her
eil en</w>
déci der</w>
log ement</w>
3 1.
mar gen</w>
mit einander</w>
com place</w>
V ölk
ber n</w>
hab ido</w>
tr am
O EC
Asy l
nam ely</w>
vollständi ge</w>
prev ista</w>
Cor ée</w>
appli es</w>
reg las</w>
inter ess
L E
T o</w>
5 00
Sw itz
Ver fass
mach ines</w>
letz t</w>
Ar men
formul ación</w>
Copenh ague</w>
Tre ffen</w>
über prüfen</w>
Famili e</w>
mi en</w>
al ismus</w>
présent ée</w>
equ iv
S i</w>
liqu id
t á
ma trim
et en
Angebo t</w>
celebr ado</w>
u la</w>
priv il
En tl
än den</w>
regul atory</w>
avi d</w>
n it
pret ende</w>
auth or</w>
announ ced</w>
Peop le</w>
régl er</w>
o ts</w>
ent end</w>
V e
oblig atoire</w>
tradici onales</w>
Zim babwe</w>
Prim er</w>
bur eau
firm ado</w>
celles -ci</w>
mi tig
c ed
quo tidi
we alth</w>
cli ent</w>
expos é</w>
grenz ung</w>
L itu
institution ellen</w>
vern ünf
constitu er</w>
ases in
Pak istán</w>
Pro ces
è nes</w>
C ómo</w>
T eile</w>
premi èrement</w>
energ é
rév él
diminu tion</w>
I m</w>
ob tenu</w>
G ä
estr ech
bri ef
MIS SION</w>
nach steh
ra í
bri tischen</w>
A bl
bes or
spir it</w>
h ang
bereit et</w>
enti tés</w>
mo derni
s un
er ter</w>
re tard</w>
v ess
disminu ción</w>
Fun ktion
obsta cle</w>
ci ans</w>
F lä
civili an</w>
kultur ellen</w>
intern a</w>
leg ungen</w>
f illed</w>
appe ars</w>
Konsul ta
verb al</w>
1 60</w>
Ver ständ
aux quelles</w>
tru g</w>
Ver s
w a
glau ben</w>
av a</w>
} </w>
comb ined</w>
zusätz lichen</w>
beg an</w>
ju ven
secon dary</w>
ar i</w>
ti endra</w>
simul tan
P il
ma tr
Ab sicht</w>
meille ures</w>
bek ämpfung</w>
Teil nahme</w>
wachst um</w>
proc ès</w>
ar z
lä ss
franc és</w>
véri fication</w>
Inter ior</w>
A tl
beh aup
becom ing</w>
vehic le</w>
Besei tigung</w>
al tar</w>
desaf íos</w>
landa is</w>
wel chen</w>
al la</w>
ma ß</w>
amoun ts</w>
cha î
Rev .1</w>
cor r
tor io</w>
W unsch</w>
spo ke</w>
Switz erland</w>
dri ve</w>
TI ON
D .
N -
tu ber
F NU
r ats</w>
Wer t
régim es</w>
wesent liche</w>
Be weg
Zivil gesellschaft</w>
so ix
h ec
re prises</w>
C enter</w>
Di alo
dispos er</w>
Landwir te</w>
Ju gen
Educ ación</w>
M P
séri eux</w>
ver län
Entschei dungs
com posición</w>
Universi dad</w>
Fr on
su m</w>
estableci das</w>
Jos é</w>
Ein beziehung</w>
famili ares</w>
è s-
im ports</w>
déci de</w>
C oll
experi ences</w>
propor ción</w>
inform ó</w>
observ ó</w>
Um ständen</w>
agr é
tuvi eron</w>
superfici e</w>
comple tamente</w>
ur gencia</w>
10 .</w>
elabor ado</w>
offic ers</w>
Lí bano</w>
cri tique</w>
ir o</w>
wirk sam
pro bar
influ encia</w>
e ous</w>
is té</w>
hauptsäch lich</w>
Rou manie</w>
conserv ación</w>
um es</w>
réalis é</w>
étrang ère</w>
Autri che</w>
structur els</w>
zi elt</w>
permitir á</w>
off ering</w>
développ és</w>
com plem
Verh andlungs
Cor por
équ ival
mon tants</w>
ob il
indi quer</w>
erst ör
off en
Al l</w>
D avid</w>
P S
be zieht</w>
sign al</w>
P ologne</w>
mes ur
prob ablemente</w>
lic ence</w>
ocu par
tal k</w>
w on
sou s
stre am
ein erseits</w>
év ision</w>
alo j
fa iled</w>
Entwicklungs ländern</w>
Zul assung</w>
cam ps</w>
T echni
ta il</w>
hervor rag
fac ulta
present an</w>
Unternehmen s</w>
acces si
di té</w>
pren ant</w>
ver sorgung</w>
physi que</w>
führ te</w>
b ad</w>
Es lo
Reak tion</w>
ec a</w>
exclu sive</w>
d lich</w>
ve terin
os amente</w>
cl aire</w>
min istère</w>
De fiz
pens er</w>
sk räf
bús queda</w>
realiz ó</w>
L .</w>
impli que</w>
statt finden</w>
Su ecia</w>
R ica</w>
sub -
tr om
o te</w>
ab en</w>
Energ y</w>
end ung</w>
sensibil isation</w>
zu letzt</w>
efec tivamente</w>
An träge</w>
experi encias</w>
y ers</w>
w .</w>
li ban
exam ples</w>
ell ed</w>
différ ences</w>
för der
N av
qu ieren</w>
fest zulegen</w>
on ne</w>
Ges etz</w>
y eux</w>
fondam entales</w>
soci o-
arri ve</w>
Proz ent</w>
B ol
colle agues</w>
Q UE</w>
re jet
gr ant</w>
dau erhaf
équip ements</w>
is ant</w>
m éri
classi fication</w>
di endo</w>
ac cur
v end
r ück
dur as</w>
größ eren</w>
tonel adas</w>
stei gen</w>
fir ma</w>
proce de</w>
Co operation</w>
bénéfici aires</w>
k unfts
Hoch schul
er radic
H ong</w>
O IT</w>
dec ken</w>
bu ff
sid enten</w>
gemein schaft</w>
spr achen</w>
viel mehr</w>
prob ably</w>
soci os</w>
einheit lichen</w>
ati sche</w>
determin ado</w>
ell ow</w>
consider arse</w>
Hil fs
le u
ph il
C S
visi ble</w>
I A
T am
i .
vic e-
ov ine</w>
bien -être</w>
ci endo</w>
man aged</w>
Lond res</w>
Inform ación</w>
tel es</w>
in stances</w>
en vers</w>
tic k
sugges tions</w>
Kan di
Clu b</w>
hom bre</w>
dom ici
ach tung</w>
israel íes</w>
bureau cr
IN G</w>
ko st
Plat z</w>
llev ado</w>
Problem en</w>
lamenta blemente</w>
aj a</w>
pu s</w>
T N
po día</w>
co c
Sub sidi
p ing
en -</w>
de cor
ci cl
Kommissions mitgli
dro gues</w>
re y</w>
Überein stimmung</w>
exist ants</w>
Sal v
li aison</w>
ré par
ofer ta</w>
clas se</w>
iss ante</w>
contra in
refor z
mortali dad</w>
UN HCR</w>
exten d</w>
Cz ech</w>
atten dre</w>
collec te</w>
ep t</w>
197 8</w>
Aus arbeitung</w>
Re du
j eg
s ets</w>
ben ach
F MI</w>
Chil d</w>
regelmäß ig</w>
Pro duc
integr ado</w>
ap parti
ec us</w>
kl ein
H ai
Fr ank
s auf</w>
aus drücklich</w>
land wirtschaftlichen</w>
vulner ables</w>
Montene gro</w>
r ace</w>
4 8
isi eren</w>
Vic e
phr ase</w>
h az
En d
P ack
S ur</w>
Eas tern</w>
erklär en</w>
actu ación</w>
reg ister</w>
weis ung</w>
4 6
pr ie</w>
Ch y
continu era</w>
reflec ted</w>
10 4</w>
aff i
Besor gnis</w>
bo v
T ari
Micro soft</w>
f än
ar ité</w>
ular es</w>
priv és</w>
Unabhängi gkeit</w>
und ing</w>
Hoh eits
til s</w>
rapp elle</w>
posi tivos</w>
fabric ation</w>
folgen der</w>
achiev ement</w>
tri fft</w>
sta tions</w>
armoniz ación</w>
NAT O</w>
cip i
habit antes</w>
N on-
zu gr
salv agu
mem or
presenta da</w>
e y
An hör
ést as</w>
fac ul
propos er</w>
zu gleich</w>
G AT
gu idance</w>
previ ously</w>
tempor al</w>
d ons</w>
Fol gen
iss ait</w>
was ser
dise ñ
de le
An lagen</w>
ráp ido</w>
indic ate</w>
Per spek
jäh rigen</w>
Reg is
20 .</w>
prépar er</w>
ent stehen</w>
Eurat om</w>
10 9</w>
depend encia</w>
For men</w>
in ter</w>
T C</w>
2004- 2005</w>
er läu
par k</w>
déten us</w>
car ne</w>
Finan cial</w>
geh ende</w>
exist antes</w>
Sing ap
pr ag
indic ation</w>
Ver bot</w>
vec inos</w>
sor gungs
Amend ment</w>
bilater ales</w>
t ter</w>
met tant</w>
b ah
be antwor
api tal</w>
inter action</w>
decision- making</w>
proper ly</w>
L -
cuid ado</w>
contin ú
ti scher</w>
2007- 2013</w>
in tim
for th
esp èces</w>
class es</w>
dé rog
Ver breitung</w>
aer op
qu ili
Un it</w>
reç o
prepar ar</w>
chang ing</w>
her vor</w>
sab e</w>
posi tiven</w>
ta tivas</w>
General versammlung</w>
Berat ungen</w>
escu ch
Untern eh
inici o</w>
in o
Stim me</w>
da fr
ta ma
fourn iture</w>
zentr ale</w>
britanni que</w>
B ar</w>
wichtig ste</w>
isi ert</w>
identi té</w>
ta ient</w>
i k</w>
S ah
läu ft</w>
élè ves</w>
Sch luss</w>
ali tion</w>
Vol k</w>
encarg ado</w>
possi bles</w>
rel ève</w>
cer tes</w>
leb ens
excep t</w>
dis capacidad</w>
larg er</w>
Zentr um</w>
cul tiv
Teil en</w>
conver gence</w>
inciden ces</w>
Ver mö
ré flexi
vers al</w>
ver ordnung</w>
play ers</w>
- y</w>
histor ic</w>
Sch ad
t- elle</w>
r yth
T his</w>
der ed</w>
pos terior</w>
priv ée</w>
n ütz
Aus tausch</w>
TR A
se as
conces ión</w>
flexi bilidad</w>
ef es</w>
so -
Steuer n</w>
be wäl
abier ta</w>
Unter ab
h im
danger ous</w>
nah me
serv ed</w>
anges prochen</w>
Fü r</w>
ver läs
suff ering</w>
conven u</w>
haus se</w>
deten tion</w>
star ke</w>
Ge win
Om buds
sta k
bean trag
ehr te</w>
accr ue</w>
dise ño</w>
tam entos</w>
über tragen</w>
compon ent</w>
at o
ein setzen</w>
aufmerk sam</w>
H älfte</w>
futur as</w>
corrup ción</w>
c tu
Sta at
r ing</w>
wer tung</w>
Jer us
v áli
ti erras</w>
k ro
gr ö
Parlam ent
ving t-
inform er</w>
esta tuto</w>
respet ar</w>
des cribe</w>
vois ins</w>
k op
Sta bilitäts
lí neas</w>
13 73</w>
deb idamente</w>
t ter
W echsel
vas te</w>
Tab elle</w>
m 2</w>
bl ement</w>
argum ents</w>
entr er</w>
élabor é</w>
verstär ken</w>
appropri ée</w>
inst a</w>
manifi esto</w>
intégr ée</w>
dig ungs
Geri cht</w>
Prin zip</w>
vor hand
fourn it</w>
ar las</w>
concep ts</w>
sta ges</w>
W erk
œ ur</w>
manifesta tions</w>
w eb
anni vers
us w.</w>
ein geleitet</w>
sé jour</w>
Metho de</w>
sch reiben</w>
s pricht</w>
individu ales</w>
ed or</w>
ent wurf</w>
veu illez</w>
Kr imin
er mu
Pr omo
Com unic
M oh
re chten</w>
Be tra
eb o</w>
Un gleich
Stra ßen
address ing</w>
re ten
re ales</w>
Tele kommunik
peti te</w>
remain ing</w>
re estructur
e ties</w>
un ités</w>
reason able</w>
üc kt</w>
sum mary</w>
um fang
ali täten</w>
st an</w>
á ticamente</w>
ti endo</w>
Pol onia</w>
ah me</w>
in hi
f la
conci encia</w>
4 9
beg lück
dé si
de tal
A -
Auf trag
c án
gan g
To des
préc ise</w>
wan ted</w>
teach ers</w>
statis tical</w>
al ise</w>
mat es</w>
re lief</w>
Mobili tät</w>
ung s</w>
effectu er</w>
Groß britanni
quanti tés</w>
for tement</w>
es cal
de h
af ter
ê tres</w>
L om
milli ers</w>
ger en</w>
cultur els</w>
arm ée</w>
alis ten</w>
Mol do
Rats vor
Er d
er stellt</w>
Muj er</w>
con join
ag ner</w>
éch el
di g</w>
monn aie</w>
administr ations</w>
oposi ción</w>
C S</w>
comb ating</w>
tr ying</w>
l eng
Phili pp
controll ed</w>
Mitarbeit er</w>
liber tades</w>
flu x</w>
prolifer ation</w>
For t
consider ablemente</w>
doc tor</w>
alis é</w>
SI DE
Produ k
res pir
‑ </w>
P as
Vor gehen</w>
Entwicklungs länder</w>
ta ille</w>
adap ter</w>
ex u
Ak tion</w>
in zwischen</w>
commerci ale</w>
pro secu
in no
chin en</w>
esta ble</w>
presupuest aria</w>
N atur</w>
S au
invest ments</w>
shar ing</w>
incl ure</w>
ex plan
K at
E v
produ ktion</w>
Mon t
be zü
médec in</w>
geh enden</w>
ali gn
i legal</w>
enn a</w>
Zi elen</w>
étudi ants</w>
différ ence</w>
crip t</w>
ó lic
s ait</w>
sex o</w>
f and</w>
A ir</w>
Bulgari en</w>
F R
mon eda</w>
Jahr zeh
exist ente</w>
efici ente</w>
see king</w>
g no
rech tz
str essed</w>
Anwend ungs
dur ad
ten si
F uer
comb ination</w>
em m
summ er</w>
br uch</w>
pres tations</w>
wäh len</w>
enti ss
An stieg</w>
so l</w>
pr êt</w>
tel eph
p ass</w>
Inkraft treten</w>
cl ause</w>
197 0</w>
Str uktur</w>
ej emp
Justi z</w>
PA C</w>
exces sive</w>
z aje</w>
em is
ac aba</w>
rele ased</w>
démocrati ques</w>
2 1.</w>
particuli ères</w>
San ta</w>
spi elt</w>
nor ma
Fir st</w>
mejor as</w>
adap tación</w>
encourag e
ein ander
effectu é</w>
aére o</w>
Sch luß
CN. 9</w>
................ ................
Belgi um</w>
geri cht
.. ..</w>
desarroll ados</w>
identi ty</w>
individu elle</w>
guarante es</w>
Rechts grundlage</w>
zu fr
liber alización</w>
tour ism</w>
soli de</w>
contro versi
seri ously</w>
nach drücklich</w>
Bereit stellung</w>
cuis ine</w>
E in</w>
super ar</w>
inten sive</w>
T om
Indi k
hab ida</w>
tro tz
4 7
so spe
adv anced</w>
totali dad</w>
M ay
Lauf e</w>
modi fied</w>
sû reté</w>
ré sum
L ett
thous ands</w>
verring ern</w>
R ati
lu i-même</w>
arm a</w>
M anu
commun s</w>
Minu ten</w>
multi ple</w>
met od
Chi pre</w>
wil lig
so fort</w>
ver fol
ch lor
re p
stimm t</w>
13 .
4. 4</w>
Glob alisierung</w>
des c
prob ablement</w>
inter esting</w>
sa ur
itu d</w>
ver einfa
mark ed</w>
Mo dern
do k
EU- Mitgliedstaaten</w>
form en</w>
ri gi
au str
utilis ée</w>
n ar
t ôt</w>
M iss
bring ing</w>
Gre en</w>
heur eux</w>
0 s</w>
imi entos</w>
sum amente</w>
de lay</w>
fir stly</w>
Com ún</w>
vi ene</w>
Strateg y</w>
rehabili tation</w>
AR I
R am
ho ur</w>
préal able</w>
mär kte</w>
angew andt</w>
Wor tl
élec tor
appu ie</w>
ta in
Aut om
E T
In je
reich s</w>
úl ti
in i</w>
sh ap
én dose</w>
verein bar</w>
ouver ts</w>
ier enden</w>
preocup a</w>
D ok</w>
handel s
Bed ro
si erung</w>
P ass
all em
inici ar</w>
concern ent</w>
improv ements</w>
10 3</w>
w inn
Rom ania</w>
áci to</w>
Über nahme</w>
iz ation</w>
accep té</w>
Char ak
conform ité</w>
auf geführten</w>
197 5</w>
consider s</w>
adul tos</w>
H or
recor ded</w>
Beteilig ten</w>
an che</w>
H- 0
fähi g</w>
comb attre</w>
ei ligen</w>
democr ática</w>
durch zuführen</w>
agradeci miento</w>
Islam ic</w>
m ér
jurídic as</w>
identi dad</w>
or ador</w>
loc ale</w>
T anz
Finanz en</w>
steu er</w>
Kommunik ation</w>
I P
judici aires</w>
bed ing
législ atif</w>
bienni um</w>
vorgeschlag ene</w>
extranj ero</w>
co ste</w>
am ig
ocup a</w>
con state</w>
fri ends</w>
k rati
re cuer
amenaz as</w>
g ave</w>
ajus te</w>
s aying</w>
op ath
neigh bour
loss enen</w>
Mob il
conjun tamente</w>
ak h
inter -
delincu encia</w>
Ob je
presid ency</w>
be fu
actu els</w>
administr ativas</w>
diskuti eren</w>
co hesion</w>
ß ten</w>
lat ter</w>
consumid or</w>
ss en</w>
po damos</w>
ung er</w>
partici par
esti ma</w>
constitu te</w>
verbund enen</w>
regul ación</w>
trad ing</w>
dg ed</w>
e- mail</w>
espo ir</w>
avi ons</w>
bal anced</w>
ul ent</w>
D auer</w>
G ra
ou tils</w>
Niv eau</w>
Par tido</w>
s emi
agra dec
12 .</w>
pro sp
montr ent</w>
wil l
jap on
- based</w>
trabaj an</w>
sta g</w>
un able</w>
sup prim
appropri é</w>
conduc ta</w>
18 0</w>
compét ente</w>
w est</w>
ed onia</w>
er scheint</w>
Bef ör
o se
arm ing</w>
a un</w>
uli eren</w>
all ant</w>
P lä
Char ta</w>
st as</w>
realiz adas</w>
rubri que</w>
Au gen</w>
libér alisation</w>
Mart in</w>
M is
Finn land</w>
sou mettre</w>
is ée</w>
fí sica</w>
custom er</w>
ter s
O G
vol .</w>
beh andlung</w>
escu ela</w>
Model l</w>
cier ta</w>
men ac
lie be</w>
mes a</w>
B ré
î tr
parall el</w>
T em
über prüft</w>
amp leur</w>
her z
F aci
Er wart
sta m
meil leurs</w>
contr ary</w>
trotz dem</w>
Hö chst
affec tation</w>
indic ations</w>
ad vis
pag ar</w>
N ame</w>
zeu g</w>
Servici os</w>
emp ir
sui table</w>
ad minis
ein richtungen</w>
réc ente</w>
zahl reichen</w>
dific ul
indic an</w>
ofrec en</w>
D r.</w>
Ausw ahl</w>
relativ </w>
Kri eg
si xième</w>
cli matiques</w>
zi g</w>
m últi
ob i</w>
Su isse</w>
ul l</w>
ejemp los</w>
auto ur</w>
institu cionales</w>
au tr
M esa</w>
fif th</w>
h andl
Sou dan</w>
st op
t in</w>
ar le</w>
nation alité</w>
Spr ach
control ar</w>
data base</w>
diagno sis</w>
ta teurs</w>
ah ead</w>
d ados</w>
compr en
wen ige</w>
UN EP</w>
de hors</w>
Pfl anz
científic os</w>
proven ance</w>
eu x-
afec tadas</w>
lic en</w>
fran ch
Lab our</w>
ser t</w>
adecu ados</w>
re a</w>
er ía</w>
syn dic
disposi tif</w>
Arbeitspl ätzen</w>
attemp t</w>
mas si
Antwor ten</w>
sufici entemente</w>
allgem ein</w>
requi rement</w>
bur go</w>
com porte</w>
zeich nete</w>
extraordin aire</w>
Ri o</w>
adul ts</w>
k tur
an en</w>
des tru
Alli ance</w>
movi lización</w>
bene pl
criteri o</w>
benepl ácito</w>
experi enced</w>
w ent</w>
entrepr is</w>
Verein fa
exemp les</w>
aj es</w>
UNF PA</w>
happ y</w>
pho to</w>
eg elung</w>
v ías</w>
Ge wä
b all
Wei ß
et as</w>
nun mehr</w>
führ ungen</w>
M é
ven ia</w>
fi gh
cu t</w>
ol der</w>
respec tivamente</w>
humanit ario</w>
bour g</w>
we ek
é duc
Moldo va</w>
über mitteln</w>
unter zeichnet</w>
cat á
com isiones</w>
tr eu
mobili té</w>
no ter</w>
g on
part ements</w>
Emb aj
der og
financi ar</w>
air craft</w>
Politi ken</w>
ec os
per centage</w>
Ur teil</w>
do le</w>
w onder
comport ement</w>
si des</w>
Erei gnisse</w>
ch al
b würdi
ang eht</w>
coun t</w>
consta té</w>
an den</w>
cl ase</w>
établi s</w>
Go og
O li
besch leuni
ech te</w>
O LAF</w>
r end</w>
ti le</w>
fac ed</w>
ejer cer</w>
Meer es
is és</w>
B ei</w>
ativ amente</w>
Betrieb s
estudi ar</w>
des ear
ré ception</w>
gew isse</w>
En ter
au m
OM S</w>
per juicio</w>
infr ing
Consul tiva</w>
al tet</w>
tél évision</w>
implic a</w>
ex ac
graf ía</w>
P ac
Mo z
men su
insta mment</w>
strength ened</w>
Fr amework</w>
aus gaben</w>
d ores</w>
ul ed</w>
wor th</w>
A po
gener ación</w>
ent lichen</w>
j ard
beträ cht
il las</w>
logr os</w>
konkre ten</w>
zeu gung</w>
j ene</w>
chem ical</w>
olér ance</w>
Au gen
gi o</w>
requ ér
améric aine</w>
NU </w>
ci almente</w>
künf te</w>
ges tern</w>
w ishes</w>
aut én
perman entes</w>
ab us</w>
her gestellt</w>
nah e</w>
bekräf tigt</w>
l óg
ver langen</w>
ok ed</w>
consider ing</w>
D H</w>
Se con
N air
Dubl in</w>
phénom ène</w>
ífic o</w>
établi e</w>
isl ang</w>
com préh
g ed</w>
2. 2</w>
Ho st
supr a</w>
formul ées</w>
zu vor</w>
in k
vis as</w>
demonstr ated</w>
zi ème</w>
exclusiv amente</w>
sor g
l ass</w>
Mon at</w>
considér ables</w>
audio visu
cl ini
M om
específic a</w>
mar ine</w>
gel angen</w>
Dan emark</w>
mess ages</w>
proz esses</w>
näch ste</w>
est y</w>
General dire
mod alidades</w>
cour ir</w>
ren al</w>
col oni
du ties</w>
ackno wle
recon oc
formul ada</w>
any thing</w>
Verständ nis</w>
u ega</w>
ali ments</w>
reconstruc ción</w>
pa th</w>
cour age</w>
Autor idad</w>
eg al</w>
E Z
flo w</w>
ow er</w>
sto od</w>
Can adi
pl uri
restructur ation</w>
ressor tiss
emp fo
rati ficación</w>
mon ta
out standing</w>
lä ßt</w>
accid ent</w>
propos ée</w>
Schi ffe</w>
H alb
quiz ás</w>
pétro le</w>
compor tamiento</w>
D y
déc oul
Re view</w>
interpré tation</w>
pl eine</w>
b islang</w>
E di
or ed</w>
S omm
Pre par
tur b
PY ME</w>
éri a</w>
afec tan</w>
B ren
se de</w>
Unterab satz</w>
invi tation</w>
ine vi
B iss
8 0
Verbesser ungen</w>
lös ung</w>
Inter ess
c œur</w>
wh at
dé pass
In fl
main tained</w>
tur ismo</w>
pf ung</w>
b enen</w>
conveni ente</w>
ach at</w>
é der</w>
einzi gen</w>
nam es</w>
gr os</w>
techn ological</w>
t .</w>
fu tura</w>
respec tively</w>
eg ue</w>
Fo undation</w>
sel n</w>
refle ja</w>
recu eil
ex ports</w>
instruc tion</w>
M ü
eri di
n te</w>
R and
sensi tive</w>
wo od</w>
coher ente</w>
Paci fic</w>
Urugu ay</w>
adop tó</w>
aplic arse</w>
gobern anza</w>
co inci
k al
G obiernos</w>
vivi enda</w>
men aces</w>
cu bier
Direc tor
resol ve</w>
elev ado</w>
um zusetzen</w>
sp an
res uel
Erwä gung</w>
in certi
Gesch le
Handel s</w>
alis és</w>
ar les</w>
employ és</w>
eg os</w>
Ungar n</w>
bir th</w>
fl us
cum bre</w>
Nair obi</w>
sti pul
farm ac
su d</w>
B CE</w>
S UR</w>
Zuständi gkeit</w>
M ar</w>
k eit
anzu wenden</w>
d auer</w>
S ir</w>
dies el
com it
charg ed</w>
D op
L et
se em</w>
pré server</w>
m ap</w>
Nor v
es i
Faci li
priv ada</w>
Stock hol
sch li
ein gehalten</w>
démar che</w>
convi ene</w>
cli ma</w>
subven ciones</w>
examin ation</w>
étudi er</w>
plante amiento</w>
modi fiée</w>
Mich el</w>
F Ü
s or</w>
eleg t</w>
speci fied</w>
re médi
men u</w>
convers aciones</w>
sum mit</w>
cap e</w>
unterstütz e</w>
er enden</w>
exist ent</w>
int oler
que o</w>
ré elle</w>
Is land</w>
améric ain</w>
B la
Pro cur
cion ado</w>
progres sive</w>
dis placed</w>
professionn els</w>
Mitglied s
év ident</w>
ext érieure</w>
aut ó
re ac
interpre tación</w>
5 5
much a</w>
L abor
detal les</w>
cap az</w>
proporcion a</w>
par ad
at om
pa yer</w>
prepar ado</w>
dis frut
abo li
Woh n
im parti
prim aria</w>
end encia</w>
grö ßer
Ver tri
Dat um</w>
get ting</w>
bet eiligen</w>
compr endido</w>
plä ne</w>
dé grad
navig ation</w>
ér cito</w>
mencion ar</w>
proch aines</w>
telev isión</w>
t esting</w>
Famili en
quin cu
impos er</w>
über ein
fundam ento</w>
nom ination</w>
teleph one</w>
substan tive</w>
bur den</w>
aff airs</w>
deta il</w>
P fli
Ern ähr
bind ing</w>
correc ta</w>
Fun ktion</w>
G han
ar te</w>
grundle genden</w>
Bré sil</w>
ang er
Aus bau</w>
mortali ty</w>
phil os
oc in
h a
Wortl aut</w>
ak tionen</w>
un cia</w>
Nach frage</w>
permit en</w>
déf endre</w>
Di enst</w>
Económ ica</w>
dé tec
dis krimin
Infrastr uktur
cohér ence</w>
certi fication</w>
g ste</w>
m í</w>
los sen
indé pendant</w>
sin dic
a partment</w>
quincu agésimo</w>
n ü
compati bles</w>
prim arily</w>
dispos ent</w>
z ierung</w>
ins isti
stratégi ques</w>
voy age</w>
Re li
Gr and</w>
Ver letz
W at
spe ech</w>
rédu it</w>
co ff
sam ple</w>
lim pi
mentionn é</w>
expres a</w>
es is</w>
con cours</w>
trans frontali
se bene</w>
tr ea</w>
Herz ég
K i
âg ées</w>
el es</w>
fac teur</w>
recei ving</w>
Mr d.</w>
tag ne</w>
recep tion</w>
E lemente</w>
consequ ently</w>
ri te</w>
on e-
uni ver
k einer</w>
li eux</w>
Gemein same</w>
P utin</w>
evalu aciones</w>
an alizar</w>
Herzég ovine</w>
st echn
ver breit
defin ir</w>
verlang t</w>
G E
Kr äf
sp aci
Frem den
über greif
conclu de</w>
alis ée</w>
bl ess
in mun
ve -
médic os</w>
e -</w>
arg ument</w>
spre ad</w>
ein gerichtet</w>
atta ck</w>
gri ffe</w>
en th</w>
paci ente</w>
R C</w>
señal ado</w>
fu tur</w>
v as</w>
ti vi
car a</w>
Ver halten</w>
sé ances</w>
ten ían</w>
contrô ler</w>
k tive</w>
mach ine</w>
qui et</w>
re présentation</w>
W affen</w>
complex e</w>
ís tico</w>
flexi bility</w>
est ellt</w>
certific ado</w>
pr eis</w>
em ed</w>
priv ées</w>
dynam ic</w>
andel t</w>
H un
ís ticos</w>
CE SE</w>
Mein ungs
ik anischen</w>
abhängi g</w>
asyl um</w>
pa ir</w>
plen ary</w>
occasi ons</w>
élec tion</w>
Te am</w>
n us</w>
n in
tuber cul
logi ci
woll te</w>
prud ence</w>
Program men</w>
ell ung</w>
Vi enna</w>
holi day</w>
en det</w>
rom an
aj out
ver tr
E gi
procé dé</w>
comienz o</w>
k ol
oper ate</w>
seit ens</w>
fol glich</w>
langfris tige</w>
Lat ina</w>
O P
inter rog
En ts
cata strophe</w>
verh äl
UNMI K</w>
Cham ber</w>
im migrants</w>
cus sions</w>
utiliz ados</w>
zipi en</w>
Goog le</w>
dimen sions</w>
human ité</w>
peque ña</w>
top ic</w>
so la</w>
ver lor
particular es</w>
ur ge</w>
ang s
a -</w>
asum ir</w>
reclam aciones</w>
I G
ec os</w>
da cht</w>
e er</w>
Vi et
Nep al</w>
do y</w>
liefer t</w>
ähn liche</w>
dispon er</w>
ge wer
down load</w>
f ein
gest alten</w>
W aff
ser n</w>
± </w>
Leg al</w>
Erzeu gung</w>
zi ele</w>
CC C</w>
on om
zi gen</w>
d at</w>
play ing</w>
gr ession</w>
sonsti gen</w>
stric t</w>
Grund rechte</w>
la isser</w>
freu t</w>
a preci
ban ken</w>
al ar
Er kenn
ta tiva</w>
k ept</w>
uni forme</w>
verk auf
inv ité</w>
bes te</w>
chiffr e</w>
' ll</w>
exigen cias</w>
reag ieren</w>
S ME
movi lidad</w>
Azer bai
nö tig</w>
asign ación</w>
Wor ten</w>
com ponente</w>
futur es</w>
bereit gestellt</w>
de alt</w>
tax ation</w>
betra chten</w>
z ung</w>
ap porté</w>
symptom s</w>
en ab
entr ev
obten us</w>
con que</w>
tur as</w>
Fin lande</w>
Eta ts-Unis</w>
Cy pr
peque ño</w>
fir m</w>
i. e.</w>
véri fier</w>
af en</w>
n d</w>
comenz ar</w>
en um
enti ties</w>
M em
appli quées</w>
1 25</w>
län ger</w>
pi èces</w>
minist éri
fournis seurs</w>
CE D</w>
Eisen bahn
10 1</w>
particip ating</w>
inform ieren</w>
algun o</w>
électri cité</w>
min orities</w>
ow ned</w>
eh </w>
le ader</w>
pos ed</w>
ahl en</w>
propos ées</w>
Reg ul
telev ision</w>
gl y
fru its</w>
solici tar</w>
Protok olls</w>
calend ario</w>
d ens</w>
E CE</w>
Bosni e-
incid ents</w>
selec ción</w>
is ées</w>
prin zip</w>
H os
pan or
al tos</w>
proce der</w>
dra w
dis h</w>
wel fare</w>
region aler</w>
avi ation</w>
moy ennes</w>
sist ance</w>
be an</w>
pág .</w>
correspond ant</w>
Schwer punkt</w>
glob ales</w>
recommen ds</w>
D ep
Biss au</w>
compañ ías</w>
197 7</w>
Cypr us</w>
rei te</w>
ju ges</w>
cultur el</w>
er adic
R eh
allow ing</w>
cubr ir</w>
coopér er</w>
mo s
Nä he</w>
sonsti ge</w>
P ho
anci en</w>
sensi bles</w>
att le</w>
Bél gica</w>
Flexi bilität</w>
pen sions</w>
ad joint</w>
vo l</w>
partner ships</w>
1. 2</w>
limi tation</w>
tr ack</w>
M édi
thre ats</w>
r üst
aéri en</w>
14 0</w>
lin e-
ver gen
emb all
Eri trea</w>
prü f
fl éch
ein bezogen</w>
th or
ra il
larg a</w>
compet ence</w>
Stellung nahmen</w>
ac a</w>
encourag ing</w>
ín dice</w>
ré si
ehr gei
cle ar
reconna ît</w>
g ets</w>
G uer
oper ative</w>
los ses</w>
dr än
14 .
g ain</w>
clos er</w>
purch ase</w>
m ün
2006- 2007</w>
affirm é</w>
de ad
ab sur
pi tal</w>
esta ción</w>
w and</w>
behandel n</w>
fru it</w>
aus encia</w>
Be griff</w>
pres taciones</w>
kurz fris
coher encia</w>
r at
inser tion</w>
buff et</w>
J e</w>
hag an</w>
gen e
pi enso</w>
ser es</w>
Bil d</w>
ständi ge</w>
pers onales</w>
Li ban</w>
Psy cho
profi tieren</w>
per c
frü heren</w>
permit an</w>
Klimaw andel</w>
coordin ated</w>
p to</w>
Sud -
clar idad</w>
ter ont</w>
W ol
P eti
FÜ R</w>
ber eiten</w>
complémen taires</w>
heal thy</w>
in side</w>
Großbritanni en</w>
des p
Hel sin
ni emand</w>
einheit liche</w>
ad mi
fu el</w>
fr app
fic a</w>
fr o
clá usu
h i</w>
mencion ados</w>
faci le</w>
B l
al t
y eron</w>
in ability</w>
reli eve</w>
Er haltung</w>
Z eichen</w>
Ol ym
ler nen</w>
hy per
Gr unde</w>
ox y
he ar</w>
asi a</w>
no ch
celebr ará</w>
ter ait</w>
Autor ité</w>
in su
noti ficación</w>
ä her
eni or</w>
politi sch</w>
concentr ations</w>
FE M</w>
utiliz an</w>
independi entes</w>
emp has
architec ture</w>
hö here</w>
A z
bei hilfen</w>
ins crit</w>
relativ ely</w>
charg és</w>
é tiques</w>
drit tens</w>
diagnós tico</w>
besteh ende</w>
de gré</w>
fo ot
betreff ende</w>
ens wert</w>
Salv ador</w>
TI C</w>
N ach</w>
vi vre</w>
vi vent</w>
bish eri
ré action</w>
étro itement</w>
run ning</w>
cas tig
cifr a</w>
ak tive</w>
septi ème</w>
glob alization</w>
b ü
all ons</w>
e. g.</w>
tr ic</w>
kein erlei</w>
wichtig es</w>
ier ung
préci s</w>
Su iza</w>
wer ten</w>
n is
ec .europa.eu</w>
consac ré</w>
re viewed</w>
materi as</w>
wer ke</w>
migr ación</w>
cor ps</w>
studi ed</w>
so- called</w>
In f
dev aient</w>
P os
ein verstanden</w>
sup pression</w>
Pr op
br ind
mem ory</w>
ess ais</w>
B rit
lat ine</w>
cross- border</w>
zugr unde</w>
ten stein</w>
7 0
intégr é</w>
kräf te</w>
wel cher</w>
razon able</w>
Sou s-
co des</w>
ES C</w>
19 .</w>
D um
hier bei</w>
Fi f
9 0
rec ens
v eux</w>
PP E-
disas ter</w>
ACNU R</w>
préc iser</w>
remplac é</w>
imag in
unter richtet</w>
th eit</w>
Ide e</w>
Famili en</w>
min ority</w>
c oup</w>
vali d</w>
Ru les</w>
in folge</w>
gl u
mode los</w>
2 2
eb er</w>
enh anced</w>
col oc
ier a</w>
Besch lusses</w>
p pe</w>
füh l</w>
cap aces</w>
Occid ental</w>
Ein stellung</w>
whi te</w>
00 0
Über legungen</w>
Ma ß</w>
enti dad</w>
man tiene</w>
Subsidi ar
suc ce
cre e</w>
Psy ch
Ri ch
Staats sekre
inclu sive</w>
tan me</w>
mat in</w>
Pro ced
no ci
up dated</w>
trans action</w>
tama ño</w>
sou tient</w>
F ax</w>
sh opping</w>
don ors</w>
so y</w>
1 12</w>
15 .
ne arly</w>
candi date</w>
ent endi
fabric ación</w>
si eben</w>
schließ t</w>
legisl ativo</w>
explo it
Egi pto</w>
Versicher ungs
pf lanz
it ze</w>
gen au
ab gesch
deliber aciones</w>
Hoff nung</w>
k ers</w>
außer ord
entscheid end</w>
spec ta
eux- mêmes</w>
Ira q
v ölk
enz a</w>
contribu ted</w>
examin ed</w>
bring ung</w>
fu er</w>
attein te</w>
ti m</w>
Lebens mittel</w>
fac es</w>
c ó
fourn is</w>
nor te</w>
man age</w>
g ers</w>
vi ve</w>
tion ally</w>
certific at</w>
convin ced</w>
Mark et</w>
natur ellement</w>
fr esh</w>
su che</w>
parta g
sta l</w>
Gewähr leistung</w>
verfüg baren</w>
b ag
contin ente</w>
anges ehen</w>
Lo i</w>
leh nen</w>
Saf ety</w>
reglam entos</w>
sozi aler</w>
er tes</w>
human idad</w>
Aus bildungs
hi p</w>
é lo
be ar</w>
Am n
et t</w>
g érer</w>
cum pl
car efully</w>
gewähr en</w>
man che</w>
Nor uega</w>
thin king</w>
établi es</w>
Kredi t
Al ter</w>
fe ature</w>
197 3</w>
im peri
Li ech
ein zur
ger ufen</w>
ent ender</w>
com fort</w>
1 º</w>
zul assen</w>
beschrän kt</w>
Über sch
cooper ate</w>
mov imiento</w>
estiv al</w>
compar able</w>
M ang
reg ímenes</w>
ou i</w>
amar ca</w>
or adores</w>
Absch luß</w>
beschließ t</w>
Ratsprä sident</w>
im port</w>
direc tor</w>
beg ünsti
füll ung</w>
C ab
as ing</w>
j i
me tro</w>
éri ques</w>
go t</w>
n aciones</w>
Mark tes</w>
si onn
bath room</w>
ausge wäh
dép it</w>
EG- Vertrag</w>
for o</w>
b et</w>
M -
4 3
Moh am
ri que
trans misión</w>
ade ur</w>
produ cir</w>
enregistr é</w>
essenti elles</w>
stor age</w>
jähr lichen</w>
correspon d</w>
best and</w>
ge ant</w>
high ligh
respec tivement</w>
Nieder lande</w>
u t</w>
K las
évalu ations</w>
post ura</w>
be zeichnet</w>
twent y-
el le-
ges tri
rendi miento</w>
f angen</w>
E D
increas es</w>
tel ef
re patri
mel dung</w>
vis ent</w>
remédi er</w>
Chy pre</w>
N a
200 8-
Pra kti
cultur elle</w>
exclu sión</w>
absolu tely</w>
D a
Gesetz gebung</w>
Fähi gkeit</w>
Konsul tation</w>
tradi ción</w>
Sy n
bil an</w>
K lar
tr em
B lo
selec t</w>
U .
jou e</w>
def ec
em ail</w>
é nu
absolu tamente</w>
assess ed</w>
graph y</w>
U l
cour ant</w>
re gres
ext érieures</w>
fi ables</w>
or row</w>
permet trait</w>
lo y
concre tamente</w>
14 .</w>
Nic ar
zur eich
avanc és</w>
civili ans</w>
cu án
M ed
wissen schaftliche</w>
vi aje</w>
gi bles</w>
produc tive</w>
capit ale</w>
permí tanme</w>
cri te</w>
i ción</w>
Mex ique</w>
z ed
bre ak</w>
B E</w>
annu elle</w>
dis tr
tu elle</w>
tor tura</w>
hang s</w>
dies bezü
dé tru
prim e</w>
inter medi
con oc
zufr ieden</w>
contra ign
idi omas</w>
representa tion</w>
abgel eh
appreci ation</w>
rais ing</w>
aktu elle</w>
DE N</w>
u er</w>
Poli ce</w>
écu s</w>
aprendi zaje</w>
Hi gh
su pon
Al geri
individ us</w>
00 1</w>
Ré union</w>
présta mos</w>
firm emente</w>
B P</w>
le jos</w>
E str
per su
Fin land</w>
Be urteilung</w>
N ami
regis tre</w>
ah í</w>
Ver b
utiliz arse</w>
Restaur ant</w>
weit gehend</w>
im agen</w>
ve ulent</w>
hel ping</w>
situ ado</w>
M io</w>
fin ding</w>
power ful</w>
oc é
identi ficar</w>
di vul
comp ta
gi ó</w>
beauftrag ten</w>
Vertre tern</w>
ultur al</w>
institu tionnel</w>
wün sch
op timi
Will en</w>
z err
Einzel heiten</w>
priv adas</w>
empe zar</w>
at tirer</w>
Norv ège</w>
humanit ären</w>
ent ando</w>
An liegen</w>
ke y
eg el
examin ó</w>
any one</w>
investig ations</w>
Arbeits markt</w>
sent ence</w>
bo tt
O U
ell en
fest gesetzt</w>
ensi ble</w>
quiz á</w>
z eiten</w>
ss on</w>
be fr
sup primer</w>
verfüg bar</w>
zäh len</w>
IS O</w>
un zureich
ir gend
E I
gh t
att énu
men o</w>
wel ches</w>
v al</w>
zugel assen</w>
fahr ens
fe ar</w>
const ant</w>
viv ir</w>
ac adem
gebi ete</w>
pro jec
profun di
vo tos</w>
prim aire</w>
s ais</w>
Sch ü
Zyper n</w>
ol o</w>
Ham as</w>
mean ing</w>
anti dumping</w>
zunehmen d</w>
ö der
E cu
hy gi
ver fahrens</w>
elle- même</w>
prec au
kürz lich</w>
atl anti
suscepti ble</w>
autom ob
end ro
tr ends</w>
br idge</w>
es ische</w>
condam n
trei ber</w>
AR E</w>
Comision ado</w>
enthal tenen</w>
SME s</w>
eu erung</w>
remplac er</w>
Politik er</w>
b é
industri ales</w>
trans fronteriz
16 .</w>
empe z
no che</w>
wes halb</w>
inform iert</w>
pu issance</w>
F err
op hi
jun tos</w>
Str om
dé mo
ressor t</w>
atr ic</w>
Prakti ken</w>
vid as</w>
con su
r se</w>
wün sche</w>
evid entemente</w>
Führ ung</w>
- B
D os
aus gesetzt</w>
up date</w>
Est onia</w>
komple x
oper ators</w>
weit eres</w>
o o</w>
Betri ebe</w>
end ront</w>
Liech tenstein</w>
Ver sion</w>
Jugen dlichen</w>
mensch lichen</w>
g rec
rou tes</w>
Dire k
déplac ées</w>
ech ische</w>
Geg ent
Mittel punkt</w>
In n
am tier
identi fier</w>
europ a</w>
pass ed</w>
plaz os</w>
M ov
cl av
hici eron</w>
recommen d</w>
ser vers</w>
P eter</w>
et u
in en</w>
Se e
196 7</w>
fa x</w>
adver tis
consider an</w>
mouv ement</w>
Pau l</w>
val oir</w>
Bevölk erungs
l aut</w>
ben utz
Cari b
M ün
tom orrow</w>
gleich s
um fassen</w>
stre et</w>
li ée</w>
tä glich</w>
car bur
expli quer</w>
S ter
H ause</w>
Alban ia</w>
re tr
li ability</w>
pass t</w>
atta ques</w>
öl f</w>
erre ur</w>
legisl ativas</w>
p ie</w>
effec tifs</w>
OEC D</w>
propos és</w>
star ken</w>
k it
FNU AP</w>
ad mission</w>
deliver ed</w>
dé faut</w>
maxim ale</w>
incid encia</w>
usu al</w>
effectu és</w>
destin ado</w>
inmigr antes</w>
Ambass ador</w>
ru fen</w>
ati e</w>
Wal d
tch èque</w>
possibili ties</w>
M it</w>
maje ure</w>
estratég ico</w>
mon etary</w>
absolu te</w>
man ch
Ghan a</w>
fé min
Arz t</w>
im poner</w>
neu f</w>
four nies</w>
Vereinfa chung</w>
rati o</w>
Dialo gs</w>
spéci aux</w>
L og
nor d</w>
ti erung</w>
pal ästinens
jou é</w>
P I</w>
Ge wi
fix és</w>
wei te</w>
demostr ar</w>
thè se</w>
fu t</w>
Intern et
capit ales</w>
Afr icana</w>
vorlieg ende</w>
sol ange</w>
p au
rev anche</w>
genu ine</w>
pu ts</w>
im es</w>
cle an
ó cr
ent ement</w>
re publik</w>
lich keits
reach ing</w>
Erzeu gnissen</w>
feh len</w>
stak eholders</w>
in hal
Din amarca</w>
Produ kt
Vor teil</w>
Com unidades</w>
redu cido</w>
stell ungs
Ged an
signific ativa</w>
quali fied</w>
Ges i
You goslav
lo ir</w>
spr ach
Ein kommen</w>
play er</w>
Bedürf nisse</w>
nacion alidad</w>
ech as</w>
escol ar</w>
mo des</w>
Cari be</w>
l ten</w>
geschi eht</w>
Mor oc
zu fried
Carib bean</w>
inmedi ato</w>
qu it
introdu ire</w>
Z e
constitu tional</w>
ensay os</w>
ô ts</w>
deb o</w>
fon dé</w>
4. 2</w>
s ays</w>
H om
Cor r
charac ter</w>
einger eicht</w>
li der
adop tada</w>
ex cl
A v
resul ted</w>
invol ve</w>
erör tert</w>
pl ante</w>
o gen
difíci les</w>
añadi r</w>
atmosp h
cad res</w>
Gesprä che</w>
quali fications</w>
d ada</w>
Helsin ki</w>
investi s
presupuest ario</w>
c ouvrir</w>
administr ativos</w>
gi gkeit</w>
K no
ni em
F ehl
sicher n</w>
ann ten</w>
kon zep
prom e
kor re
Johann es
mu li
zweif ellos</w>
declar ed</w>
fer mement</w>
Befu gnisse</w>
Co venant</w>
du das</w>
de ep</w>
Mär kten</w>
fix er</w>
mar ge</w>
Mi cha
medio ambiental</w>
deut sche</w>
k ul
ob ras</w>
Yougoslav ie</w>
av antage</w>
wom an</w>
s érie
Fisch ler</w>
ó x
absolu t</w>
mutz ung</w>
engag é</w>
ho gares</w>
relativ amente</w>
we ï
str a
qu edan</w>
10 8</w>
Wissen schaft</w>
c ál
resid encia</w>
equ ally</w>
cor re
últim as</w>
combusti ble</w>
Fra ktionen</w>
Diskus sionen</w>
13 .</w>
prostitu tion</w>
combusti bles</w>
grundsätz lich</w>
reci ben</w>
alloc ated</w>
Mac edonia</w>
ac umul
eil ler</w>
ré pé
ne ar
Air port</w>
éc tr
[...]
